<pad>	0
<unk>	0
<s>	0
</s>	0
<|system|>	0
<|user|>	0
<|assistant|>	0
<|end|>	0
<think>	0
</think>	0
<reflection>	0
</reflection>	0
<lora>	0
</lora>	0
<route>	0
</route>	0
<tool>	0
</tool>	0
<tool_result>	0
</tool_result>	0
<memory>	0
</memory>	0
<recall>	0
</recall>	0
<|code|>	0
<|endcode|>	0
<|python|>	0
<|javascript|>	0
<|typescript|>	0
<|rust|>	0
<|cpp|>	0
<|go|>	0
<|java|>	0
<|shell|>	0
<|sql|>	0
<|mtp_1|>	0
<|mtp_2|>	0
<|mtp_3|>	0
<0x00>	0
<0x01>	0
<0x02>	0
<0x03>	0
<0x04>	0
<0x05>	0
<0x06>	0
<0x07>	0
<0x08>	0
<0x09>	0
<0x0A>	0
<0x0B>	0
<0x0C>	0
<0x0D>	0
<0x0E>	0
<0x0F>	0
<0x10>	0
<0x11>	0
<0x12>	0
<0x13>	0
<0x14>	0
<0x15>	0
<0x16>	0
<0x17>	0
<0x18>	0
<0x19>	0
<0x1A>	0
<0x1B>	0
<0x1C>	0
<0x1D>	0
<0x1E>	0
<0x1F>	0
<0x20>	0
<0x21>	0
<0x22>	0
<0x23>	0
<0x24>	0
<0x25>	0
<0x26>	0
<0x27>	0
<0x28>	0
<0x29>	0
<0x2A>	0
<0x2B>	0
<0x2C>	0
<0x2D>	0
<0x2E>	0
<0x2F>	0
<0x30>	0
<0x31>	0
<0x32>	0
<0x33>	0
<0x34>	0
<0x35>	0
<0x36>	0
<0x37>	0
<0x38>	0
<0x39>	0
<0x3A>	0
<0x3B>	0
<0x3C>	0
<0x3D>	0
<0x3E>	0
<0x3F>	0
<0x40>	0
<0x41>	0
<0x42>	0
<0x43>	0
<0x44>	0
<0x45>	0
<0x46>	0
<0x47>	0
<0x48>	0
<0x49>	0
<0x4A>	0
<0x4B>	0
<0x4C>	0
<0x4D>	0
<0x4E>	0
<0x4F>	0
<0x50>	0
<0x51>	0
<0x52>	0
<0x53>	0
<0x54>	0
<0x55>	0
<0x56>	0
<0x57>	0
<0x58>	0
<0x59>	0
<0x5A>	0
<0x5B>	0
<0x5C>	0
<0x5D>	0
<0x5E>	0
<0x5F>	0
<0x60>	0
<0x61>	0
<0x62>	0
<0x63>	0
<0x64>	0
<0x65>	0
<0x66>	0
<0x67>	0
<0x68>	0
<0x69>	0
<0x6A>	0
<0x6B>	0
<0x6C>	0
<0x6D>	0
<0x6E>	0
<0x6F>	0
<0x70>	0
<0x71>	0
<0x72>	0
<0x73>	0
<0x74>	0
<0x75>	0
<0x76>	0
<0x77>	0
<0x78>	0
<0x79>	0
<0x7A>	0
<0x7B>	0
<0x7C>	0
<0x7D>	0
<0x7E>	0
<0x7F>	0
<0x80>	0
<0x81>	0
<0x82>	0
<0x83>	0
<0x84>	0
<0x85>	0
<0x86>	0
<0x87>	0
<0x88>	0
<0x89>	0
<0x8A>	0
<0x8B>	0
<0x8C>	0
<0x8D>	0
<0x8E>	0
<0x8F>	0
<0x90>	0
<0x91>	0
<0x92>	0
<0x93>	0
<0x94>	0
<0x95>	0
<0x96>	0
<0x97>	0
<0x98>	0
<0x99>	0
<0x9A>	0
<0x9B>	0
<0x9C>	0
<0x9D>	0
<0x9E>	0
<0x9F>	0
<0xA0>	0
<0xA1>	0
<0xA2>	0
<0xA3>	0
<0xA4>	0
<0xA5>	0
<0xA6>	0
<0xA7>	0
<0xA8>	0
<0xA9>	0
<0xAA>	0
<0xAB>	0
<0xAC>	0
<0xAD>	0
<0xAE>	0
<0xAF>	0
<0xB0>	0
<0xB1>	0
<0xB2>	0
<0xB3>	0
<0xB4>	0
<0xB5>	0
<0xB6>	0
<0xB7>	0
<0xB8>	0
<0xB9>	0
<0xBA>	0
<0xBB>	0
<0xBC>	0
<0xBD>	0
<0xBE>	0
<0xBF>	0
<0xC0>	0
<0xC1>	0
<0xC2>	0
<0xC3>	0
<0xC4>	0
<0xC5>	0
<0xC6>	0
<0xC7>	0
<0xC8>	0
<0xC9>	0
<0xCA>	0
<0xCB>	0
<0xCC>	0
<0xCD>	0
<0xCE>	0
<0xCF>	0
<0xD0>	0
<0xD1>	0
<0xD2>	0
<0xD3>	0
<0xD4>	0
<0xD5>	0
<0xD6>	0
<0xD7>	0
<0xD8>	0
<0xD9>	0
<0xDA>	0
<0xDB>	0
<0xDC>	0
<0xDD>	0
<0xDE>	0
<0xDF>	0
<0xE0>	0
<0xE1>	0
<0xE2>	0
<0xE3>	0
<0xE4>	0
<0xE5>	0
<0xE6>	0
<0xE7>	0
<0xE8>	0
<0xE9>	0
<0xEA>	0
<0xEB>	0
<0xEC>	0
<0xED>	0
<0xEE>	0
<0xEF>	0
<0xF0>	0
<0xF1>	0
<0xF2>	0
<0xF3>	0
<0xF4>	0
<0xF5>	0
<0xF6>	0
<0xF7>	0
<0xF8>	0
<0xF9>	0
<0xFA>	0
<0xFB>	0
<0xFC>	0
<0xFD>	0
<0xFE>	0
<0xFF>	0
▁	-2.49149
.	-3.30559
,	-3.41681
▁the	-3.87601
▁of	-4.3864
▁in	-4.51675
▁and	-4.61546
-	-4.72809
▁to	-4.75797
s	-4.90375
▁a	-4.93127
▁und	-4.9774
▁der	-5.00699
:	-5.02366
▁die	-5.17208
▁is	-5.21207
_	-5.25931
▁=	-5.32019
)	-5.33108
▁(	-5.49115
▁\	-5.5998
(	-5.61917
▁for	-5.71962
▁that	-5.73011
▁The	-5.81901
▁-	-5.86551
▁von	-5.93273
▁den	-6.02819
▁an	-6.0441
'	-6.05807
▁are	-6.07041
▁mit	-6.07539
▁as	-6.07922
x	-6.09298
▁+	-6.09557
▁with	-6.10349
▁on	-6.14187
▁$	-6.15729
▁zu	-6.17597
n	-6.18159
▁ist	-6.20507
▁by	-6.22592
▁was	-6.24115
▁be	-6.26161
▁from	-6.27634
▁für	-6.27929
▁das	-6.28529
▁im	-6.3116
/	-6.31703
▁auf	-6.36717
▁"	-6.40557
▁des	-6.41695
▁it	-6.41891
▁or	-6.46417
▁ein	-6.48069
▁can	-6.48817
’	-6.49486
;	-6.50958
▁Die	-6.55056
▁sich	-6.55359
▁dem	-6.55696
▁eine	-6.56879
▁at	-6.57172
a	-6.57282
e	-6.57506
▁this	-6.5947
en	-6.59654
{	-6.60266
▁{	-6.61601
t	-6.62762
"	-6.64149
▁In	-6.64735
▁we	-6.67567
?	-6.69538
$	-6.69552
frac	-6.69996
▁have	-6.70198
}	-6.72654
▁auch	-6.75258
▁you	-6.77206
▁als	-6.78721
▁Sie	-6.79881
▁nicht	-6.81539
▁not	-6.84539
▁–	-6.86906
▁\[	-6.87034
▁\]	-6.89096
▁es	-6.91749
▁2	-6.92955
▁A	-6.94301
▁which	-6.97054
▁aus	-6.97697
er	-6.98704
▁has	-7.00102
▁so	-7.01241
▁bei	-7.03205
▁will	-7.03364
y	-7.05653
▁}	-7.07529
▁er	-7.076
▁their	-7.0804
▁werden	-7.08715
▁oder	-7.09178
▁wurde	-7.09779
▁sind	-7.10463
▁also	-7.117
▁1	-7.12202
▁if	-7.16227
▁3	-7.16841
▁your	-7.17813
▁war	-7.18869
▁more	-7.21606
▁nach	-7.22049
▁they	-7.22077
▁one	-7.23289
▁sie	-7.23936
r	-7.24008
▁am	-7.25462
▁„	-7.26037
▁*	-7.27854
▁Der	-7.28712
▁I	-7.29633
▁all	-7.29734
▁einer	-7.30207
▁wird	-7.30777
▁zum	-7.31838
!	-7.32911
▁his	-7.34961
▁number	-7.35661
b	-7.36399
▁um	-7.36406
▁but	-7.3646
▁einen	-7.36571
▁were	-7.3684
▁dass	-7.37255
▁This	-7.37427
▁Das	-7.37571
^2	-7.3801
▁einem	-7.39098
▁“	-7.39567
i	-7.40584
m	-7.40749
d	-7.41267
);	-7.42233
▁wie	-7.4354
▁über	-7.43588
▁he	-7.44358
▁bis	-7.44986
▁It	-7.47578
▁other	-7.49387
▁4	-7.50297
▁first	-7.5138
]	-7.51836
),	-7.52419
▁hat	-7.53532
▁ich	-7.55033
▁&	-7.55584
▁than	-7.56311
▁$\	-7.56451
▁about	-7.56656
).	-7.56671
▁into	-7.56948
▁'	-7.57112
▁two	-7.57657
▁when	-7.59195
▁5	-7.59651
“	-7.59873
[	-7.60541
▁durch	-7.60581
c	-7.61103
()	-7.61876
▁its	-7.62624
▁use	-7.63093
▁time	-7.63131
▁zur	-7.63359
▁0	-7.63612
▁who	-7.64413
::	-7.65433
▁find	-7.67391
▁new	-7.676
▁#	-7.67612
▁noch	-7.67902
▁man	-7.69201
▁people	-7.70417
=	-7.70532
▁x	-7.70898
▁there	-7.71274
▁nur	-7.71419
▁wir	-7.7195
",	-7.72549
▁kann	-7.73602
▁vor	-7.74509
▁these	-7.75002
▁haben	-7.75048
f	-7.75402
>	-7.75504
▁been	-7.76244
▁So	-7.77135
S	-7.77803
▁out	-7.78496
▁many	-7.78632
▁may	-7.78809
▁each	-7.79007
▁self	-7.79293
▁had	-7.7938
▁aber	-7.80142
sqrt	-7.80626
▁up	-7.81161
▁können	-7.81295
▁such	-7.81367
k	-7.81627
▁them	-7.8379
▁//	-7.85483
▁B	-7.86182
▁We	-7.86224
▁Problem	-7.86379
▁need	-7.87681
▁how	-7.87952
A	-7.87955
▁only	-7.88032
in	-7.88032
es	-7.88075
ing	-7.89411
▁some	-7.8951
▁He	-7.90203
▁return	-7.91105
▁import	-7.92607
▁would	-7.93622
▁If	-7.93775
▁10	-7.94181
▁do	-7.94868
▁where	-7.94908
▁Im	-7.95043
▁used	-7.95199
▁6	-7.95483
',	-7.96226
▁|	-7.96316
▁get	-7.96956
▁her	-7.97164
▁Solution	-7.97397
▁what	-7.97501
▁most	-7.97527
▁our	-7.97652
▁mehr	-7.97879
\	-7.98158
boxed	-7.99287
2	-7.99466
text	-7.99667
▁To	-7.99935
▁S	-8.01264
▁between	-8.0268
▁unter	-8.03825
▁<	-8.04567
▁sein	-8.04777
g	-8.0542
▁value	-8.05539
p	-8.06692
▁over	-8.06807
▁years	-8.07197
▁total	-8.07343
▁any	-8.07973
C	-8.08021
("	-8.08414
”	-8.09156
Rightarrow	-8.09997
▁C	-8.10389
▁no	-8.11025
▁Es	-8.11492
z	-8.12703
▁For	-8.13081
th	-8.1321
B	-8.135
▁like	-8.13713
cdot	-8.1424
▁8	-8.14826
▁then	-8.15143
▁after	-8.15177
▁through	-8.17299
▁make	-8.17708
▁vom	-8.18023
<	-8.18268
):	-8.18883
▁b	-8.19426
▁ab	-8.19698
▁uns	-8.19883
h	-8.20741
('	-8.21241
self	-8.22191
▁she	-8.22523
▁should	-8.22616
▁well	-8.22739
▁both	-8.23065
▁work	-8.23652
▁water	-8.23761
▁three	-8.2476
ed	-8.24944
▁New	-8.25014
▁20	-8.25173
▁E	-8.25439
▁dann	-8.26765
D	-8.27073
▁Er	-8.27325
▁Since	-8.27341
▁Jahr	-8.27376
▁sowie	-8.27433
▁diese	-8.27479
▁12	-8.27962
▁wenn	-8.28624
id	-8.28689
▁data	-8.29312
▁wieder	-8.29579
▁area	-8.30069
▁gibt	-8.30323
▁const	-8.30571
o	-8.31181
▁same	-8.31271
▁function	-8.31609
▁7	-8.31623
▁different	-8.31687
▁equation	-8.32249
$,	-8.32918
▁sehr	-8.33126
▁de	-8.33335
▁wurden	-8.33343
1	-8.33393
▁given	-8.3362
▁help	-8.34402
▁dieser	-8.34598
▁Ein	-8.35266
times	-8.35394
▁P	-8.35859
▁let	-8.35892
▁could	-8.35937
▁because	-8.36277
▁What	-8.36428
$.	-8.36896
▁per	-8.3817
▁using	-8.38335
▁students	-8.38802
▁[	-8.39301
▁Mit	-8.39919
to	-8.39959
▁du	-8.41529
re	-8.41919
v	-8.42115
name	-8.42245
▁American	-8.42454
▁during	-8.42516
▁immer	-8.42929
▁M	-8.42933
▁way	-8.4294
▁U	-8.43046
▁being	-8.43823
▁zwei	-8.43986
▁alle	-8.44256
▁D	-8.44321
▁part	-8.44323
▁even	-8.44476
▁University	-8.44603
▁eines	-8.44839
▁must	-8.45034
▁Zeit	-8.45359
{\	-8.45641
▁15	-8.46034
▁seine	-8.4604
▁There	-8.46215
▁set	-8.46345
▁found	-8.46725
|	-8.47225
();	-8.47436
▁possible	-8.47538
▁year	-8.4765
▁system	-8.48429
▁made	-8.4853
▁children	-8.48707
▁hier	-8.49169
▁hatte	-8.49345
▁schon	-8.49353
u	-8.49735
com	-8.49807
de	-8.50046
▁However	-8.5026
▁very	-8.50401
▁c	-8.50409
▁much	-8.50488
▁y	-8.50647
▁9	-8.50771
▁They	-8.51414
get	-8.51428
▁Let	-8.51542
▁da	-8.51605
l	-8.51897
▁Wir	-8.5215
▁Nach	-8.52229
▁day	-8.52296
left	-8.52647
▁said	-8.52744
▁just	-8.52802
▁T	-8.52881
▁life	-8.52893
▁m	-8.52918
▁=>	-8.52946
end	-8.5364
▁while	-8.53783
▁beim	-8.53878
▁information	-8.53948
▁under	-8.54359
▁As	-8.54576
▁know	-8.54688
T	-8.54815
▁before	-8.55084
right	-8.55229
▁high	-8.555
3	-8.55614
▁gegen	-8.55808
▁world	-8.56068
▁those	-8.5678
▁ihr	-8.57058
▁Jahren	-8.58401
pi	-8.58438
+	-8.58504
▁You	-8.58585
▁seiner	-8.58895
P	-8.59198
▁Jahre	-8.59383
▁ihre	-8.59462
▁take	-8.59913
▁\\	-8.60104
▁@	-8.60681
▁answer	-8.61019
▁name	-8.61229
▁30	-8.61245
▁def	-8.61359
▁1.	-8.61434
▁long	-8.61761
mathbf	-8.62484
▁Bei	-8.6264
▁type	-8.63435
▁Ich	-8.63785
▁G	-8.64021
▁keine	-8.64116
▁public	-8.64239
▁F	-8.64316
▁Am	-8.64456
▁see	-8.6454
▁form	-8.64869
▁National	-8.64943
▁zwischen	-8.65381
▁does	-8.65391
▁An	-8.66144
▁K	-8.66191
▁important	-8.66213
▁second	-8.66324
if	-8.66386
▁i	-8.66562
▁us	-8.66674
▁United	-8.67247
▁ohne	-8.67938
▁now	-8.67946
▁(*	-8.68424
▁health	-8.68563
data	-8.68773
▁diesem	-8.69034
▁point	-8.69546
▁common	-8.70007
▁sum	-8.70185
▁around	-8.70328
▁But	-8.70629
▁known	-8.70862
▁R	-8.70968
▁Now	-8.71125
▁100	-8.7113
▁waren	-8.71136
▁When	-8.71527
▁habe	-8.71605
.”	-8.72202
▁including	-8.72344
is	-8.72729
▁ersten	-8.73077
▁school	-8.73679
▁seit	-8.73691
▁f	-8.74515
▁How	-8.74975
://	-8.75163
▁anderen	-8.75473
▁back	-8.75945
return	-8.75961
▁On	-8.76289
on	-8.76455
▁positive	-8.76512
▁problem	-8.76895
The	-8.77116
▁test	-8.77151
▁line	-8.77662
▁H	-8.77763
▁state	-8.77987
▁study	-8.78057
▁V	-8.78627
▁Für	-8.78642
▁research	-8.78645
▁body	-8.78947
▁often	-8.79059
▁US	-8.79269
▁Stadt	-8.79601
▁gut	-8.7981
▁St	-8.79836
w	-8.80324
I	-8.80379
▁since	-8.8108
▁==	-8.81146
E	-8.81371
▁down	-8.81551
▁18	-8.81728
▁good	-8.82246
▁L	-8.82297
▁Ihre	-8.82579
▁class	-8.82668
▁side	-8.82671
▁small	-8.82757
▁Eine	-8.8308
▁These	-8.8315
▁damit	-8.83397
▁case	-8.83496
▁References	-8.8377
▁called	-8.83804
▁less	-8.83981
▁right	-8.84077
▁every	-8.84204
▁values	-8.84339
▁drei	-8.84345
▁numbers	-8.84759
▁bereits	-8.85022
M	-8.85194
▁without	-8.85254
▁p	-8.85304
▁Und	-8.85562
▁result	-8.85655
sin	-8.85735
▁Auch	-8.86151
▁still	-8.86463
pmatrix	-8.86571
F	-8.86596
*	-8.86809
▁selbst	-8.86909
or	-8.87169
▁own	-8.87227
▁process	-8.87301
▁Menschen	-8.87312
▁16	-8.87414
▁September	-8.87519
▁neue	-8.87526
")	-8.88128
▁jedoch	-8.88203
▁place	-8.88497
the	-8.88504
▁April	-8.8852
begin	-8.88735
▁online	-8.88783
▁muss	-8.88974
▁Diese	-8.89076
▁%	-8.89175
▁Therefore	-8.89278
ly	-8.89282
▁food	-8.89441
▁my	-8.89467
▁August	-8.89568
▁example	-8.89865
▁following	-8.89979
▁States	-8.90147
▁finden	-8.90523
▁Leben	-8.90524
▁group	-8.9092
R	-8.91406
."	-8.91412
▁means	-8.9173
st	-8.91863
▁last	-8.91873
V	-8.91878
▁Du	-8.91922
▁mir	-8.91996
▁large	-8.92227
▁viele	-8.9254
4	-8.92962
▁Auf	-8.93082
▁Deutschland	-8.93094
▁end	-8.93951
▁four	-8.94023
▁She	-8.94132
▁power	-8.94227
▁Als	-8.94339
▁mich	-8.94361
▁him	-8.94477
▁within	-8.94536
▁25	-8.94897
▁change	-8.94981
▁family	-8.95117
▁ganz	-8.95266
▁World	-8.95328
▁11	-8.95518
▁want	-8.95531
▁else	-8.95667
▁Step	-8.96194
▁women	-8.96535
))	-8.96649
▁J	-8.96727
▁best	-8.96869
▁d	-8.9704
="	-8.97081
▁order	-8.97206
▁November	-8.97344
▁N	-8.97429
cos	-8.97442
log	-8.97563
▁Wenn	-8.97757
▁true	-8.9779
▁another	-8.97886
▁viel	-8.9807
▁length	-8.98344
type	-8.9868
^3	-8.99102
N	-8.99117
▁ways	-8.99294
▁50	-8.99335
▁did	-8.99346
▁child	-8.99412
—	-8.99415
▁include	-8.99661
▁dabei	-8.99812
▁geht	-8.99896
▁##	-8.99938
▁energy	-9.002
▁heute	-9.00335
▁team	-9.00464
▁Dr	-9.00494
▁einfach	-9.0057
path	-9.00781
▁home	-9.00834
▁real	-9.00902
▁non	-9.01292
▁seinen	-9.01512
▁terms	-9.01599
▁Wie	-9.01914
▁2.	-9.02005
test	-9.02046
▁against	-9.02309
▁z	-9.02355
▁times	-9.02459
▁etwas	-9.02626
▁After	-9.03297
▁Berlin	-9.03363
▁Ende	-9.03383
▁One	-9.03609
(\	-9.0364
▁Ihr	-9.04072
▁range	-9.04722
▁All	-9.04732
▁etwa	-9.04854
▁books	-9.04857
▁wo	-9.04868
▁left	-9.04969
us	-9.05043
▁r	-9.05152
▁age	-9.05183
▁O	-9.0549
▁liegt	-9.05497
▁ihrer	-9.05523
G	-9.05649
')	-9.05717
▁early	-9.05788
▁And	-9.06084
▁might	-9.06085
▁machen	-9.06103
▁based	-9.06163
▁next	-9.06188
▁24	-9.06504
▁‘	-9.0652
▁—	-9.06613
▁square	-9.06761
▁14	-9.06943
▁history	-9.07061
▁book	-9.07231
▁sondern	-9.07247
▁links	-9.07581
▁W	-9.07666
▁until	-9.0767
▁John	-9.07762
▁create	-9.07783
▁York	-9.07947
,”	-9.07954
▁Art	-9.08203
set	-9.0821
▁human	-9.08216
▁start	-9.08274
▁several	-9.08337
▁Online	-9.08417
▁mal	-9.08501
▁neuen	-9.08586
▁nun	-9.08627
▁product	-9.08628
▁13	-9.08674
▁days	-9.089
▁later	-9.09118
this	-9.09342
▁Thus	-9.09872
▁few	-9.09964
▁Ihnen	-9.09988
▁andere	-9.10014
▁least	-9.10021
▁amount	-9.10126
▁soll	-9.10337
▁points	-9.10559
▁Euro	-9.10613
":	-9.10798
▁disease	-9.11087
▁Kinder	-9.11124
▁Teil	-9.11169
)$	-9.11715
and	-9.11909
▁See	-9.11998
▁At	-9.12118
▁Von	-9.12417
▁ihn	-9.12544
▁players	-9.12554
▁become	-9.12713
▁seinem	-9.12907
▁person	-9.12956
L	-9.13109
▁});	-9.13322
▁Unternehmen	-9.13672
▁local	-9.13746
▁development	-9.13768
▁Some	-9.14142
▁:=	-9.14396
...	-9.14524
▁here	-9.14541
▁jetzt	-9.1489
▁lassen	-9.15051
▁go	-9.1527
▁don	-9.15319
▁Welt	-9.1533
0	-9.15436
▁string	-9.15506
K	-9.16036
▁term	-9.16045
▁cost	-9.16177
▁hours	-9.1627
▁provide	-9.16421
▁species	-9.16577
▁g	-9.16632
▁Geschichte	-9.16911
▁ihren	-9.1692
▁better	-9.17119
▁erste	-9.17383
}{	-9.17412
▁integer	-9.17871
▁müssen	-9.1789
▁dieses	-9.17981
size	-9.18126
▁single	-9.18209
j	-9.18248
▁weiter	-9.18506
▁due	-9.18519
align	-9.18593
▁final	-9.18595
▁available	-9.18978
▁Uhr	-9.19027
▁key	-9.19055
▁support	-9.1915
▁dort	-9.19266
▁`	-9.19444
▁level	-9.19458
▁unsere	-9.19465
X	-9.19533
▁equal	-9.19972
▁konnte	-9.20337
▁off	-9.2035
quad	-9.20456
▁School	-9.20514
▁Da	-9.2059
▁||	-9.20633
▁steht	-9.20701
▁government	-9.20714
value	-9.20785
▁allem	-9.20907
▁•	-9.20955
▁areas	-9.21095
▁"""	-9.21209
le	-9.21399
▁English	-9.21427
}$	-9.21612
▁sollte	-9.21711
▁War	-9.21767
▁original	-9.21793
an	-9.21901
▁became	-9.22154
▁ihm	-9.22339
▁Platz	-9.22474
▁km	-9.22523
string	-9.22703
▁doch	-9.22959
▁risk	-9.23006
▁expression	-9.23257
▁40	-9.23307
▁blood	-9.23348
▁together	-9.23444
▁cause	-9.2351
▁triangle	-9.2358
“,	-9.23583
▁great	-9.2409
▁needs	-9.24095
▁too	-9.24424
▁current	-9.24457
▁während	-9.24616
▁Find	-9.2475
▁By	-9.24764
▁South	-9.2477
▁var	-9.24867
▁3.	-9.2523
▁II	-9.25265
▁men	-9.2537
▁First	-9.25614
▁series	-9.2562
▁*/	-9.25847
▁zusammen	-9.25848
▁60	-9.26019
▁v	-9.26028
▁file	-9.26151
8	-9.26182
';	-9.26198
▁able	-9.26299
▁social	-9.26328
▁diesen	-9.2635
▁control	-9.26357
▁ob	-9.26546
▁County	-9.26676
▁base	-9.26814
▁dazu	-9.2691
_1	-9.26967
▁kommt	-9.26969
▁show	-9.2734
▁err	-9.2735
▁un	-9.27372
▁list	-9.27735
▁learning	-9.27796
▁Film	-9.27861
H	-9.27934
5	-9.28014
▁free	-9.28133
▁results	-9.28138
▁light	-9.28204
org	-9.28297
▁1,	-9.28414
q	-9.28469
▁weitere	-9.28686
▁Mai	-9.29065
▁conditions	-9.29095
▁Was	-9.29195
–	-9.29251
▁country	-9.29307
▁look	-9.29344
▁main	-9.29428
▁Hier	-9.29488
▁says	-9.29543
ll	-9.29867
▁language	-9.29964
▁21	-9.30245
Type	-9.30303
▁along	-9.30378
▁making	-9.30403
▁population	-9.30896
▁five	-9.3118
▁beiden	-9.31248
▁sides	-9.31307
▁project	-9.3134
man	-9.31609
':	-9.31911
▁multiple	-9.3235
▁alles	-9.32429
▁Spiel	-9.32466
▁size	-9.32515
▁>	-9.32517
▁specific	-9.32538
▁sei	-9.32825
▁among	-9.32958
new	-9.32973
▁low	-9.33115
`	-9.33184
▁ja	-9.33208
▁17	-9.33222
www	-9.33311
▁city	-9.33396
&	-9.33439
▁top	-9.33532
▁19	-9.33836
theta	-9.34036
▁später	-9.34128
->	-9.3415
int	-9.3418
▁cm	-9.34218
▁No	-9.34269
▁Tag	-9.34432
▁model	-9.34472
▁k	-9.34478
▁above	-9.345
▁fact	-9.34549
file	-9.34726
▁2010	-9.34744
▁zurück	-9.34982
▁treatment	-9.35108
▁May	-9.35388
ve	-9.35505
▁City	-9.35731
▁others	-9.3604
▁field	-9.36114
te	-9.36121
▁come	-9.36215
▁Ort	-9.36425
▁unserer	-9.36478
▁think	-9.36627
▁old	-9.36634
▁Land	-9.36772
▁things	-9.36877
▁problems	-9.37071
▁vier	-9.37113
time	-9.37215
▁program	-9.37253
▁always	-9.37255
▁community	-9.37447
O	-9.37514
▁State	-9.37528
▁probability	-9.37583
▁million	-9.37596
▁minutes	-9.37658
▁fast	-9.37714
▁try	-9.3777
▁Gemeinde	-9.3791
▁season	-9.38103
key	-9.38142
al	-9.38575
▁External	-9.38623
▁kam	-9.3869
▁full	-9.38706
//	-9.38922
▁education	-9.39031
6	-9.39161
▁British	-9.39438
as	-9.39469
▁North	-9.39499
…	-9.39503
▁average	-9.39552
Name	-9.39815
▁read	-9.39855
▁either	-9.39893
▁me	-9.40066
▁percent	-9.40128
▁distance	-9.4024
▁open	-9.40486
▁give	-9.40592
▁add	-9.40684
▁play	-9.40703
▁rund	-9.40779
▁!=	-9.40845
▁land	-9.40878
||	-9.40912
▁building	-9.4109
▁natural	-9.41163
▁u	-9.41164
▁working	-9.41359
▁2016	-9.41558
▁source	-9.4168
▁From	-9.4173
▁already	-9.41761
▁bietet	-9.41797
▁einige	-9.41814
▁Informationen	-9.41827
_2	-9.4189
▁red	-9.41918
▁bzw	-9.41992
▁learn	-9.42152
▁third	-9.42178
▁rate	-9.42234
▁2012	-9.42262
▁major	-9.42422
▁With	-9.42604
▁erhalten	-9.42683
▁care	-9.42767
str	-9.42908
▁};	-9.42932
▁keep	-9.42952
▁///	-9.42982
▁gives	-9.43095
▁plant	-9.431
▁levels	-9.43127
▁2014	-9.43441
▁welche	-9.43467
▁2017	-9.4363
▁little	-9.43635
▁lead	-9.43805
▁air	-9.4388
▁},	-9.44031
▁assert	-9.44102
▁Um	-9.44197
circ	-9.44234
▁erst	-9.44244
▁Ab	-9.44272
▁largest	-9.44286
▁space	-9.44338
▁across	-9.44373
▁color	-9.44387
▁away	-9.44504
▁Aber	-9.44656
▁factors	-9.44748
▁period	-9.44749
▁2015	-9.44858
▁gab	-9.44948
▁2011	-9.45011
▁words	-9.45117
▁live	-9.45186
▁technology	-9.45286
▁International	-9.45295
▁cells	-9.45345
");	-9.45372
▁möglich	-9.45381
▁...	-9.45387
▁März	-9.45425
▁denn	-9.45577
▁Prozent	-9.45586
▁Oktober	-9.45702
▁increase	-9.45703
▁1)	-9.45802
▁Daten	-9.45863
▁->	-9.45879
▁Man	-9.45887
▁required	-9.45977
▁company	-9.45994
▁--	-9.46067
▁West	-9.46133
▁likely	-9.4616
▁various	-9.46166
['	-9.46235
▁fn	-9.46301
▁solve	-9.46359
▁members	-9.46383
▁having	-9.46394
▁course	-9.46424
▁weil	-9.46458
▁2013	-9.46546
▁feet	-9.46589
▁private	-9.46655
▁circle	-9.46685
▁2018	-9.46706
$:	-9.46816
▁false	-9.46935
ung	-9.47044
▁require	-9.4721
▁site	-9.47242
▁game	-9.47257
for	-9.47311
▁century	-9.47451
▁Juni	-9.47459
▁Zu	-9.47509
▁today	-9.476
Id	-9.47711
▁Mal	-9.47733
▁denen	-9.47737
▁kommen	-9.47785
▁Kunden	-9.47826
▁types	-9.47876
▁something	-9.47923
▁La	-9.47967
▁kein	-9.48028
▁That	-9.48058
▁Internet	-9.48112
▁systems	-9.48129
▁Seite	-9.48143
▁roots	-9.4824
▁bin	-9.48257
▁usually	-9.4829
▁present	-9.48318
▁None	-9.48559
▁einmal	-9.48605
add	-9.48637
▁solution	-9.48744
▁say	-9.48762
▁Januar	-9.48787
▁done	-9.49037
".	-9.49135
▁half	-9.49325
▁Arbeit	-9.49337
▁money	-9.49379
▁X	-9.49483
▁While	-9.49502
▁letzten	-9.49515
▁Seit	-9.49607
▁London	-9.49629
▁allen	-9.49645
▁published	-9.49668
▁große	-9.49759
▁&=	-9.49762
▁pub	-9.50037
▁export	-9.50082
▁role	-9.50423
▁His	-9.50611
▁created	-9.50618
▁func	-9.50707
▁white	-9.5077
▁http	-9.50888
▁Frauen	-9.50915
▁future	-9.50933
▁write	-9.50954
▁further	-9.50962
▁run	-9.51057
▁step	-9.51079
▁experience	-9.51102
▁film	-9.51242
▁Juli	-9.5131
▁plants	-9.51443
▁Team	-9.51451
▁enough	-9.51467
▁$(	-9.51578
▁formula	-9.51941
▁cases	-9.52033
▁condition	-9.52264
▁why	-9.52316
▁again	-9.52322
▁makes	-9.52476
▁consider	-9.5251
▁großen	-9.52582
▁cancer	-9.52584
▁design	-9.52641
▁similar	-9.52808
▁error	-9.52844
▁March	-9.5294
▁below	-9.52947
Data	-9.5295
▁production	-9.53053
_{	-9.53074
▁cannot	-9.53089
▁smallest	-9.53148
▁short	-9.53175
▁Given	-9.53212
▁put	-9.53235
▁integers	-9.53302
▁height	-9.53339
▁sehen	-9.53452
▁general	-9.53478
▁stehen	-9.53515
ID	-9.53566
▁deutscher	-9.53768
▁changes	-9.54083
Error	-9.54489
().	-9.54636
▁Aus	-9.54879
▁Wasser	-9.54893
▁Fall	-9.55049
▁understand	-9.55119
▁death	-9.55171
*}	-9.55199
(),	-9.55369
▁method	-9.55536
▁certain	-9.55697
▁2008	-9.55704
▁groups	-9.55832
▁built	-9.55873
▁higher	-9.55883
▁2009	-9.55892
▁countries	-9.55952
list	-9.56059
▁law	-9.5611
▁took	-9.56134
▁brain	-9.56138
▁draw	-9.56238
▁macht	-9.56245
');	-9.56263
▁music	-9.56528
▁environment	-9.56588
▁week	-9.5667
▁science	-9.56678
▁service	-9.5668
▁surface	-9.56695
W	-9.56883
▁question	-9.56922
▁however	-9.57018
▁won	-9.57023
▁dafür	-9.57297
▁whole	-9.57453
▁once	-9.57464
▁statt	-9.57578
up	-9.57629
▁national	-9.57667
▁San	-9.57771
▁going	-9.57832
▁written	-9.57866
▁Familie	-9.57917
▁young	-9.58004
▁nil	-9.5801
▁Frau	-9.58076
▁Durch	-9.58214
▁choose	-9.58225
▁re	-9.58312
▁heart	-9.58368
▁works	-9.58453
▁Dezember	-9.58464
▁2019	-9.58576
▁History	-9.58589
▁label	-9.58641
▁ebenfalls	-9.58684
▁besten	-9.58694
▁America	-9.58708
▁paper	-9.5871
▁China	-9.58777
String	-9.58843
▁units	-9.58918
▁region	-9.58926
(&	-9.58938
▁schnell	-9.59175
▁began	-9.59326
param	-9.5935
▁far	-9.59364
innen	-9.59369
▁Beispiel	-9.5955
▁event	-9.59623
▁God	-9.59626
▁access	-9.59681
▁League	-9.59695
▁approach	-9.59922
▁never	-9.60199
▁volume	-9.60223
▁June	-9.60337
no	-9.60502
▁vielen	-9.60568
um	-9.60572
▁Haus	-9.60586
▁needed	-9.60587
▁difference	-9.60787
▁hand	-9.60789
▁h	-9.60906
▁writing	-9.61034
7	-9.61347
▁products	-9.61347
den	-9.6138
{1}{	-9.61536
▁direkt	-9.61705
▁pro	-9.61711
▁int	-9.61715
▁Vor	-9.61864
▁print	-9.61958
▁whether	-9.62417
▁spielen	-9.62473
os	-9.62496
▁2020	-9.62534
at	-9.62589
▁eigenen	-9.62748
▁prime	-9.62794
▁position	-9.62948
▁Park	-9.62963
▁student	-9.62978
▁2000	-9.63142
▁besonders	-9.63157
▁College	-9.63166
▁void	-9.63196
▁Emily	-9.63293
▁word	-9.63553
▁4.	-9.63694
▁weight	-9.6375
▁worden	-9.64018
▁addition	-9.64049
▁calculate	-9.64054
▁ihrem	-9.64071
▁etc	-9.64149
Y	-9.64258
▁July	-9.64318
▁black	-9.64334
▁0,	-9.64417
▁darauf	-9.64471
▁story	-9.64513
▁response	-9.64705
▁Casino	-9.64825
▁Band	-9.64894
▁2007	-9.64928
▁wollen	-9.65104
▁dir	-9.65161
@	-9.65277
▁lower	-9.65304
='	-9.65313
ab	-9.65347
▁expect	-9.65412
▁especially	-9.65463
▁parts	-9.65612
▁200	-9.65694
state	-9.65704
▁action	-9.65799
▁patients	-9.65887
▁business	-9.66009
▁bekannt	-9.66037
▁Saison	-9.66249
▁near	-9.66316
In	-9.66357
▁six	-9.66467
▁null	-9.66546
▁taken	-9.66581
length	-9.66782
▁activities	-9.66799
▁months	-9.66931
▁sure	-9.6705
▁games	-9.67185
▁effects	-9.67206
▁dessen	-9.67251
▁ca	-9.67281
▁studies	-9.67322
▁head	-9.67354
}}	-9.67372
▁developed	-9.67389
▁Be	-9.67393
▁Wer	-9.67455
▁individual	-9.67494
▁England	-9.67532
▁meine	-9.6756
pm	-9.67563
To	-9.67581
▁lange	-9.67817
▁deutschen	-9.67834
map	-9.67837
▁January	-9.67912
▁geben	-9.67949
▁symptoms	-9.67958
▁image	-9.67961
▁loss	-9.68036
▁Kirche	-9.68077
io	-9.68134
em	-9.68142
▁complex	-9.68178
▁allerdings	-9.6824
▁check	-9.68265
▁Februar	-9.684
▁Weg	-9.68427
▁report	-9.68543
▁&&	-9.68687
▁Namen	-9.68695
";	-9.68785
from	-9.68916
▁People	-9.68946
▁break	-9.69059
▁System	-9.69103
▁living	-9.69196
▁greater	-9.69245
▁Bereich	-9.69269
▁center	-9.69326
▁simple	-9.69433
▁seen	-9.69459
▁dich	-9.69503
▁factor	-9.69549
▁October	-9.69674
▁path	-9.69751
el	-9.69838
▁Unter	-9.69925
▁post	-9.70047
▁received	-9.70048
▁Thomas	-9.70081
▁Do	-9.70082
▁physical	-9.70135
▁international	-9.70178
▁/**	-9.7021
▁Science	-9.7024
▁Center	-9.70334
▁really	-9.70353
▁gilt	-9.70376
▁22	-9.70385
▁played	-9.70552
ten	-9.70553
▁USA	-9.70735
▁located	-9.70773
▁questions	-9.70827
▁states	-9.70828
▁material	-9.70845
▁medical	-9.70912
▁released	-9.70956
▁established	-9.71025
▁considered	-9.71045
▁Personen	-9.71182
▁lässt	-9.71234
▁findet	-9.71246
▁deren	-9.71374
index	-9.71375
▁develop	-9.7138
▁researchers	-9.71445
▁miles	-9.71445
▁global	-9.71518
▁Peter	-9.7153
▁hatten	-9.71555
▁article	-9.71556
▁Also	-9.71597
▁actually	-9.71644
▁Thema	-9.717
▁member	-9.71764
▁License	-9.71874
▁video	-9.71894
▁past	-9.7199
▁Preis	-9.72012
▁anderem	-9.72039
▁root	-9.72114
▁takes	-9.72148
▁bieten	-9.7215
▁Test	-9.72227
▁came	-9.72239
▁potential	-9.72253
▁issues	-9.72261
▁Dabei	-9.72412
▁green	-9.72422
▁davon	-9.7246
▁Video	-9.72537
out	-9.72659
▁Form	-9.72699
▁Musik	-9.7271
▁Paul	-9.72766
▁Spiele	-9.72854
▁determine	-9.72877
▁resources	-9.72899
▁activity	-9.72997
▁skills	-9.73092
config	-9.73102
▁page	-9.73189
var	-9.73233
▁Geld	-9.73235
▁Co	-9.73371
▁Über	-9.73384
▁content	-9.73429
▁fünf	-9.73452
▁Michael	-9.73475
▁rather	-9.73514
▁quality	-9.73538
▁gehört	-9.73566
▁Research	-9.73605
▁default	-9.73619
▁lot	-9.73628
▁reduce	-9.73637
▁impact	-9.73857
▁California	-9.73902
ers	-9.73903
▁verschiedenen	-9.73911
mann	-9.73911
▁sogar	-9.73927
▁Service	-9.73938
▁General	-9.73972
▁climate	-9.74205
▁De	-9.74288
▁Health	-9.74336
▁services	-9.74356
)^2	-9.74393
▁Alle	-9.7441
▁gerne	-9.74461
▁code	-9.74464
▁shows	-9.74564
▁provided	-9.74565
“.	-9.7459
▁contains	-9.74638
line	-9.74668
▁user	-9.74696
▁$2	-9.74706
▁David	-9.74723
▁French	-9.74743
▁reading	-9.7477
▁events	-9.74827
▁growth	-9.74836
▁India	-9.74851
▁2006	-9.74895
▁Doch	-9.74965
())	-9.75086
▁jeder	-9.7524
of	-9.75269
▁though	-9.75373
based	-9.75399
▁hin	-9.75525
err	-9.75599
json	-9.75624
▁Museum	-9.75727
List	-9.7584
▁River	-9.75852
▁Z	-9.75989
▁Then	-9.76034
▁related	-9.76168
▁included	-9.76259
▁held	-9.76263
▁according	-9.76269
▁During	-9.76453
div	-9.76523
▁natürlich	-9.76715
▁Universität	-9.76741
▁Each	-9.76753
▁Here	-9.76849
▁taking	-9.76875
▁started	-9.7691
▁divided	-9.77031
▁High	-9.77061
▁Einsatz	-9.77068
▁German	-9.77102
▁blue	-9.77162
▁Entwicklung	-9.77167
▁practice	-9.7727
century	-9.77367
▁version	-9.77402
go	-9.77511
▁sequence	-9.77536
▁animals	-9.77551
by	-9.77724
▁December	-9.77856
▁According	-9.78015
▁build	-9.78064
▁2,	-9.7817
▁Grund	-9.7817
▁80	-9.78228
▁besteht	-9.78228
({	-9.78323
equiv	-9.78328
▁27	-9.78457
▁Jahrhundert	-9.78486
▁gehen	-9.78641
▁associated	-9.7871
▁Artikel	-9.78745
▁Most	-9.78804
▁named	-9.78827
▁zunächst	-9.78925
▁Earth	-9.78944
▁knowledge	-9.78957
▁Buch	-9.78958
▁Hotel	-9.78982
born	-9.79
▁wirklich	-9.79001
▁house	-9.79006
▁produced	-9.79008
▁sollten	-9.79188
▁training	-9.79217
▁maximum	-9.7925
▁Institute	-9.79357
▁digits	-9.79405
▁unseren	-9.79489
▁neben	-9.79508
U	-9.7953
▁befindet	-9.79581
▁neu	-9.79582
▁exactly	-9.79588
able	-9.79671
▁career	-9.79769
▁particular	-9.79774
▁Rahmen	-9.79786
▁call	-9.79792
▁materials	-9.79795
▁feel	-9.79911
▁Many	-9.80049
▁complete	-9.80147
9	-9.8016
▁stand	-9.8016
▁rights	-9.80228
▁directly	-9.80291
▁includes	-9.80325
▁significant	-9.80408
▁options	-9.80615
▁produce	-9.80618
▁Fragen	-9.80651
▁comes	-9.80755
▁Mitglied	-9.80854
▁expected	-9.80883
▁Your	-9.80963
▁München	-9.81103
land	-9.81107
▁effect	-9.81151
▁provides	-9.81184
dir	-9.81264
▁art	-9.81288
it	-9.81347
Z	-9.81422
▁object	-9.81498
▁House	-9.81547
▁ratio	-9.81548
▁Ziel	-9.81582
▁parents	-9.81759
error	-9.8177
▁wegen	-9.81886
})	-9.81899
▁political	-9.81905
▁ging	-9.81906
▁itself	-9.81908
len	-9.81961
▁increased	-9.82037
▁würde	-9.82059
▁style	-9.82088
▁5.	-9.82144
ge	-9.82195
▁clear	-9.82257
▁genau	-9.82335
▁pain	-9.82464
▁2021	-9.82545
{1}{2}	-9.82767
▁kleine	-9.82907
▁computer	-9.82936
▁structure	-9.83032
▁understanding	-9.83033
▁move	-9.83039
angle	-9.83084
▁pressure	-9.83142
▁European	-9.83177
▁Paris	-9.8318
▁healthy	-9.83277
▁Millionen	-9.83351
▁modern	-9.83504
▁remaining	-9.83558
▁Ihren	-9.83559
▁close	-9.83697
▁gute	-9.83947
▁Union	-9.84032
▁negative	-9.84116
▁Zum	-9.84118
Die	-9.84123
▁skin	-9.84155
▁added	-9.84158
▁kostenlos	-9.84161
▁90	-9.84214
▁Mann	-9.84241
▁nature	-9.8436
▁special	-9.84475
▁longer	-9.84547
▁larger	-9.84719
▁Neben	-9.84738
ia	-9.84816
▁born	-9.84863
▁oil	-9.84922
▁throughout	-9.84974
Q	-9.84985
^4	-9.85215
▁23	-9.8523
▁face	-9.8527
include	-9.85278
▁Bau	-9.85356
▁1990	-9.85364
▁cell	-9.85385
▁45	-9.85412
.“	-9.85437
▁William	-9.8548
▁mean	-9.85482
▁kleinen	-9.85483
▁February	-9.855
▁inside	-9.85578
▁effective	-9.85597
info	-9.85837
▁led	-9.85873
▁normal	-9.85899
▁record	-9.86007
▁plan	-9.86071
user	-9.86116
▁36	-9.86216
ch	-9.86219
▁schools	-9.86227
▁†	-9.86416
▁evidence	-9.86508
▁mehrere	-9.86598
▁std	-9.86787
▁website	-9.86808
));	-9.86853
▁Using	-9.86874
^	-9.86968
▁Region	-9.87132
▁standard	-9.87257
▁designed	-9.87294
▁looking	-9.87327
----------------	-9.87349
berg	-9.87488
▁themselves	-9.87732
▁jeden	-9.87753
▁idea	-9.878
▁erhielt	-9.87811
▁Google	-9.87822
▁management	-9.88059
▁almost	-9.88084
▁James	-9.88089
▁focus	-9.88104
▁doesn	-9.88114
▁speed	-9.88222
▁120	-9.88283
▁continue	-9.88303
▁2005	-9.8832
▁angle	-9.88476
▁additional	-9.88488
▁Ihrer	-9.88509
▁euch	-9.88511
mut	-9.88536
▁Christian	-9.88593
▁28	-9.88599
▁wenig	-9.88682
▁Dies	-9.88683
▁…	-9.88707
▁hard	-9.89022
▁gemacht	-9.89022
']	-9.89054
▁prevent	-9.89167
tan	-9.8922
▁Roman	-9.89263
▁gerade	-9.89275
▁kannst	-9.893
▁ground	-9.89303
▁zeigt	-9.89326
▁analysis	-9.89372
▁gas	-9.89389
▁könnte	-9.8941
▁Während	-9.89414
▁Robert	-9.89426
▁[]	-9.89459
▁zwar	-9.89476
▁difficult	-9.89552
▁Tage	-9.89642
▁Europa	-9.89649
Get	-9.89655
code	-9.89669
▁Bild	-9.89687
▁ability	-9.89758
▁view	-9.89832
#	-9.89844
▁industry	-9.89875
▁My	-9.89896
▁Is	-9.90025
▁match	-9.90117
model	-9.90213
▁former	-9.90243
▁verwendet	-9.90246
,"	-9.90281
▁unser	-9.90355
▁soil	-9.90396
▁improve	-9.90472
▁births	-9.90497
▁weiteren	-9.90521
▁late	-9.90568
Value	-9.90595
▁radius	-9.90655
▁Den	-9.90705
▁King	-9.90793
▁deutsche	-9.90869
▁allow	-9.90891
▁interest	-9.90962
▁weniger	-9.91329
▁Deutschen	-9.9135
▁Anfang	-9.9135
▁uses	-9.916
▁degree	-9.91607
▁Sport	-9.91691
html	-9.91716
▁Washington	-9.91734
▁solutions	-9.91769
▁Verfügung	-9.91785
▁Hand	-9.91787
▁möchte	-9.9179
▁methods	-9.91873
▁3,	-9.91899
▁aller	-9.91934
▁smaller	-9.91965
▁Europe	-9.9199
▁temperature	-9.92035
▁Dieser	-9.92175
▁je	-9.92181
▁Design	-9.92183
▁meisten	-9.9221
year	-9.92272
▁price	-9.92321
={	-9.92363
args	-9.92476
▁»	-9.92527
▁shown	-9.9255
▁zweiten	-9.92587
▁property	-9.92674
▁Day	-9.92693
▁Spieler	-9.92699
▁necessary	-9.92721
▁software	-9.92815
▁entire	-9.92904
▁super	-9.92933
▁Although	-9.92953
▁recent	-9.9297
▁ensure	-9.92993
▁thought	-9.93254
▁formed	-9.9336
▁wohl	-9.93421
▁hour	-9.9346
▁})	-9.93463
▁Top	-9.93601
());	-9.93663
▁George	-9.93698
▁sollen	-9.93812
▁upon	-9.93813
▁unserem	-9.9383
▁served	-9.93955
▁economic	-9.94058
▁wäre	-9.94114
▁daher	-9.94142
▁#[	-9.9418
▁ever	-9.94315
▁context	-9.94328
▁TV	-9.94336
▁nichts	-9.94404
▁Japan	-9.94509
sum	-9.94766
▁table	-9.9488
▁correct	-9.94887
▁easy	-9.94898
format	-9.94927
▁ihnen	-9.94953
▁instead	-9.94961
▁et	-9.95035
▁unique	-9.95042
▁Frage	-9.95051
▁Möglichkeit	-9.9508
▁died	-9.9524
▁yet	-9.95253
▁share	-9.95267
▁2004	-9.95274
▁FC	-9.95293
▁verschiedene	-9.95354
["	-9.95392
class	-9.95409
▁output	-9.95445
▁turn	-9.95446
all	-9.95471
▁sicher	-9.95495
▁month	-9.95506
▁lines	-9.95605
▁Black	-9.95609
▁tree	-9.95623
▁Department	-9.95658
▁lives	-9.95783
net	-9.95796
▁title	-9.95814
▁()	-9.95825
▁text	-9.95831
▁gleich	-9.95844
▁input	-9.95862
▁via	-9.95875
▁np	-9.95981
max	-9.96059
▁outside	-9.96153
▁simply	-9.96163
▁popular	-9.96194
▁More	-9.96257
▁26	-9.9635
▁Indian	-9.96358
▁strong	-9.96359
▁car	-9.96486
▁market	-9.96522
▁perfect	-9.96651
▁involved	-9.96744
▁regular	-9.96755
▁issue	-9.96783
▁Titel	-9.96811
▁films	-9.97012
▁Australia	-9.97161
▁media	-9.97275
▁performance	-9.97276
▁companies	-9.97337
▁kind	-9.9745
▁Dann	-9.97509
▁football	-9.976
▁oft	-9.97655
▁besser	-9.97732
▁Auto	-9.97815
▁message	-9.97843
▁individuals	-9.97852
▁Association	-9.97914
▁0;	-9.98001
Set	-9.98014
▁went	-9.98014
▁town	-9.98081
▁elements	-9.98139
init	-9.98259
node	-9.98271
▁remainder	-9.98421
▁big	-9.98506
▁«	-9.98512
der	-9.98525
example	-9.98543
▁Canada	-9.98575
▁innerhalb	-9.98617
▁Other	-9.9872
▁getting	-9.98969
▁caused	-9.98997
▁1980	-9.99013
▁l	-9.9904
▁__	-9.99338
▁matter	-9.99396
▁network	-9.99407
▁https	-9.99464
▁Seiten	-9.99475
▁Martin	-9.9952
▁properties	-9.99531
▁führt	-9.99735
▁Sohn	-9.9975
▁Gruppe	-9.99754
▁mind	-9.99798
▁leading	-9.99818
js	-9.99853
ic	-9.99876
▁unit	-9.99974
▁album	-10.0001
▁scientists	-10.0026
▁digit	-10.0032
▁personal	-10.0037
▁lang	-10.004
▁Of	-10.0043
▁features	-10.0046
▁target	-10.0051
▁Society	-10.0054
▁Not	-10.0059
input	-10.0091
▁Sommer	-10.0095
▁rest	-10.0101
python	-10.0104
ie	-10.0104
▁whose	-10.0108
▁variety	-10.0108
▁gar	-10.0109
filename	-10.0115
▁Minuten	-10.0116
▁deutlich	-10.0122
▁Re	-10.0123
▁GmbH	-10.0124
▁African	-10.0126
▁active	-10.0133
▁Name	-10.0139
▁fish	-10.014
▁Club	-10.0159
▁Weitere	-10.0163
▁sagt	-10.0166
▁fraction	-10.0175
▁Natur	-10.0178
▁costs	-10.0179
▁benefits	-10.0208
▁co	-10.0209
▁6.	-10.0215
see	-10.0217
const	-10.0218
▁box	-10.0222
▁gemeinsam	-10.0226
▁doing	-10.0233
▁Lage	-10.0235
▁polynomial	-10.0235
▁Liste	-10.024
J	-10.0243
▁Sex	-10.0246
▁sense	-10.0252
▁reason	-10.0257
▁divisible	-10.0258
▁Damit	-10.0259
▁sold	-10.0268
32	-10.0271
▁Produkt	-10.029
▁hinaus	-10.0291
▁love	-10.0291
▁===	-10.0294
▁male	-10.0299
▁damage	-10.03
▁Kunst	-10.0303
▁Hamburg	-10.0317
▁subject	-10.0332
▁programs	-10.0334
▁heat	-10.0334
▁dollars	-10.0339
▁previous	-10.0342
▁East	-10.0356
▁Markt	-10.0356
bar	-10.0357
▁weeks	-10.0358
be	-10.0362
▁sagte	-10.0362
▁Africa	-10.0365
▁Alex	-10.0366
▁causes	-10.0371
Test	-10.0371
▁professional	-10.0373
▁minimum	-10.0383
▁goal	-10.0389
▁Red	-10.0397
We	-10.0404
▁author	-10.0405
▁<<	-10.0412
▁date	-10.0414
▁basic	-10.0418
▁tun	-10.0421
▁currently	-10.0422
with	-10.0432
▁keinen	-10.0433
▁sometimes	-10.0434
▁1970	-10.0442
▁Meter	-10.0446
▁Bad	-10.0447
▁1$	-10.0454
▁account	-10.0455
▁becomes	-10.0458
▁lost	-10.0463
▁eigene	-10.0468
▁1:	-10.0471
▁thing	-10.0486
▁Denn	-10.0487
▁Our	-10.0487
▁Mitarbeiter	-10.0493
▁Bank	-10.0495
▁EU	-10.05
▁Projekt	-10.0506
▁500	-10.0509
▁2003	-10.051
▁worked	-10.0512
▁primary	-10.0512
▁nehmen	-10.0512
▁requires	-10.0516
(1)	-10.0534
▁stellen	-10.0535
num	-10.0537
▁Wahl	-10.0539
▁daily	-10.054
api	-10.054
▁leicht	-10.0547
Mail	-10.0561
▁meters	-10.0573
▁Air	-10.0577
function	-10.0578
▁konnten	-10.0585
▁Rolle	-10.0587
append	-10.0592
▁kurz	-10.0595
▁Y	-10.0597
▁Software	-10.06
▁inches	-10.0601
▁Raum	-10.061
▁section	-10.0613
▁described	-10.0615
▁defined	-10.0617
▁hoch	-10.0619
▁Use	-10.0622
▁70	-10.0625
alpha	-10.0626
▁Le	-10.0627
▁society	-10.063
▁culture	-10.0632
haus	-10.0634
▁kaufen	-10.0637
▁begann	-10.0643
▁19.	-10.0648
▁35	-10.0648
▁sowohl	-10.0649
▁environmental	-10.0651
▁helps	-10.0656
▁round	-10.0659
▁Produkte	-10.0675
▁7.	-10.0678
one	-10.0681
▁Post	-10.0686
1,	-10.0687
ner	-10.0696
▁al	-10.0702
▁grow	-10.0703
▁List	-10.0704
▁forms	-10.0704
url	-10.0715
Path	-10.0721
▁Wochen	-10.0727
▁sources	-10.0734
▁Q	-10.0735
▁father	-10.074
Service	-10.0744
▁sechs	-10.0744
▁Jahres	-10.0751
▁movement	-10.0755
▁Außerdem	-10.0759
▁stark	-10.076
start	-10.0774
▁except	-10.0787
▁Wien	-10.0796
State	-10.0797
▁Award	-10.0798
▁Group	-10.0805
▁nächsten	-10.081
▁relationship	-10.0822
▁night	-10.0824
▁Start	-10.0824
▁String	-10.0826
▁address	-10.0828
▁friends	-10.0831
▁distinct	-10.0835
▁player	-10.0852
▁casino	-10.0859
▁Party	-10.0861
▁leaves	-10.0861
▁collection	-10.0862
Info	-10.0863
▁la	-10.0874
▁Gold	-10.0881
Key	-10.0886
▁Bis	-10.0893
▁Education	-10.0901
▁allows	-10.0903
▁300	-10.0912
▁foods	-10.0915
▁avoid	-10.0921
▁fire	-10.0937
▁job	-10.0939
▁Folge	-10.094
▁stellt	-10.0943
binom	-10.0945
▁map	-10.0945
▁musste	-10.0949
▁moved	-10.0954
▁Karl	-10.0958
▁aufgrund	-10.0959
▁(2	-10.0962
▁Book	-10.0965
▁growing	-10.0976
▁ver	-10.0979
▁Professor	-10.0998
▁contact	-10.1002
▁hold	-10.1004
▁got	-10.1008
▁initial	-10.1012
▁Cup	-10.1019
▁Website	-10.102
▁Hilfe	-10.1022
▁France	-10.1035
▁carbon	-10.1046
▁kids	-10.1051
▁sea	-10.1065
▁ago	-10.1067
▁items	-10.1072
▁pay	-10.1077
▁developing	-10.1089
▁eat	-10.1099
▁static	-10.1116
▁beispielsweise	-10.1122
▁Un	-10.1136
▁spent	-10.1137
▁someone	-10.114
▁2002	-10.1146
▁song	-10.1152
▁behind	-10.1159
pmod	-10.1161
▁Germany	-10.1163
▁2001	-10.1164
▁pre	-10.1171
▁believe	-10.1173
▁follow	-10.1174
▁force	-10.1175
▁trees	-10.1182
▁$3	-10.1186
▁attention	-10.1192
▁richtig	-10.1198
▁Stunden	-10.1201
▁Web	-10.1211
▁reported	-10.1218
▁Her	-10.1219
▁equations	-10.1219
▁Kosten	-10.1232
▁1000	-10.1233
▁Ihrem	-10.1248
▁Liebe	-10.1251
▁safety	-10.1255
▁Tom	-10.126
▁Winter	-10.1263
▁stop	-10.1263
▁teachers	-10.1266
▁reach	-10.1267
▁2)	-10.1268
▁room	-10.1283
▁paar	-10.1283
▁jeweils	-10.129
▁Church	-10.1293
▁contain	-10.1297
▁meist	-10.1299
▁particularly	-10.1299
▁express	-10.13
▁safe	-10.1301
create	-10.1302
▁mein	-10.1307
▁sex	-10.1309
▁sleep	-10.1309
▁wide	-10.1312
▁1960	-10.1312
▁cut	-10.1315
▁nutzen	-10.1315
▁quadratic	-10.1319
▁behavior	-10.1321
▁w	-10.1321
▁station	-10.1321
▁UK	-10.1331
▁measure	-10.1337
▁son	-10.1342
▁stage	-10.1354
True	-10.1357
▁pattern	-10.1358
gh	-10.1359
min	-10.1361
▁store	-10.1367
▁bleibt	-10.137
▁eher	-10.1372
▁bekommen	-10.1378
▁nahm	-10.1379
▁fand	-10.1389
▁nie	-10.1399
result	-10.1399
▁critical	-10.1404
▁Version	-10.1407
▁Woche	-10.1411
▁military	-10.1414
▁zeigen	-10.1422
▁traditional	-10.1425
ton	-10.145
▁2:	-10.1455
▁unterschiedlich	-10.1455
▁Zur	-10.1455
▁insgesamt	-10.1462
▁President	-10.1465
src	-10.1467
▁deaths	-10.1475
▁families	-10.1477
▁success	-10.1483
▁Maria	-10.1486
▁2\	-10.149
▁meaning	-10.1496
▁gegenüber	-10.15
▁Great	-10.1505
▁location	-10.1506
▁stress	-10.152
▁status	-10.1521
],	-10.1521
▁easily	-10.1528
▁Dieses	-10.1538
▁inequality	-10.1542
▁animal	-10.1549
▁sound	-10.155
▁occur	-10.1552
not	-10.1552
▁€	-10.1553
http	-10.1556
▁</	-10.1558
1.	-10.1564
▁erstmals	-10.1568
▁Gesellschaft	-10.1575
▁Qualität	-10.1577
▁+=	-10.1581
▁seines	-10.1583
▁Friedrich	-10.159
{2	-10.1593
▁Nicht	-10.1594
▁cards	-10.1598
▁generally	-10.1599
▁sieht	-10.1602
▁degrees	-10.1603
▁32	-10.1606
▁darüber	-10.1606
It	-10.1612
▁folgenden	-10.1615
▁wichtig	-10.162
▁Bilder	-10.1622
▁constant	-10.163
▁Hans	-10.1632
▁device	-10.1636
▁protect	-10.1636
▁Landes	-10.1637
▁places	-10.1639
▁0$	-10.1642
New	-10.1643
!(	-10.1652
▁Angebot	-10.1653
▁handelt	-10.1653
▁placed	-10.1659
▁48	-10.1659
▁Act	-10.1672
nd	-10.1677
▁Island	-10.1677
▁Eltern	-10.1678
▁essential	-10.1682
▁construction	-10.1702
▁extra	-10.1704
}$.	-10.1714
▁communities	-10.1727
^2}	-10.1733
▁spielte	-10.1734
{3}	-10.1736
▁Seine	-10.1739
▁probably	-10.174
▁application	-10.1741
▁beginning	-10.1742
{2}	-10.1743
File	-10.1744
▁Two	-10.1756
Config	-10.1762
▁zudem	-10.1764
▁wrote	-10.1764
▁150	-10.1766
▁Kultur	-10.177
▁theory	-10.1775
▁Körper	-10.1781
▁policy	-10.1784
field	-10.1788
Context	-10.1791
▁Pro	-10.1792
▁möchten	-10.1794
▁anti	-10.1803
▁summer	-10.1803
▁wissen	-10.1809
▁quickly	-10.1812
▁eye	-10.1818
▁Music	-10.1838
▁Höhe	-10.184
▁fall	-10.1842
▁-\	-10.1845
app	-10.1859
▁Ver	-10.1864
▁twice	-10.187
%	-10.1882
▁Texas	-10.1888
▁essay	-10.1894
▁patient	-10.1896
▁str	-10.1897
▁Council	-10.1898
base	-10.1907
digit	-10.1907
▁thus	-10.1907
▁club	-10.191
▁mother	-10.1911
▁Royal	-10.1911
▁insbesondere	-10.1911
▁gewann	-10.1912
▁hinter	-10.1915
▁Mehr	-10.1924
▁bezeichnet	-10.1926
like	-10.1932
▁shape	-10.1932
▁steps	-10.1933
▁Blick	-10.1934
▁Live	-10.1935
py	-10.194
▁Press	-10.1942
ischen	-10.1965
▁4,	-10.1969
▁Unsere	-10.197
▁email	-10.1972
▁Familien	-10.1975
▁functions	-10.1981
Object	-10.1987
▁row	-10.1987
un	-10.1987
ne	-10.1988
▁format	-10.2
▁count	-10.2005
▁Straße	-10.2007
▁ideas	-10.2008
au	-10.2012
javascript	-10.2014
▁offer	-10.2015
▁Substitute	-10.2017
▁tools	-10.202
▁len	-10.2023
▁Holz	-10.2026
▁central	-10.2028
▁church	-10.2036
((	-10.2039
▁deine	-10.204
▁sofort	-10.2046
▁Zukunft	-10.2055
▁tests	-10.2062
▁zero	-10.2062
▁Can	-10.2079
▁www	-10.2082
▁cover	-10.2082
▁9.	-10.2095
▁visit	-10.2096
system	-10.21
▁digital	-10.21
▁Open	-10.2104
▁north	-10.2105
▁Get	-10.2105
▁mm	-10.2112
▁security	-10.2114
▁identify	-10.2115
▁divide	-10.2118
▁towards	-10.2122
▁Living	-10.2125
▁Dort	-10.2126
array	-10.2129
▁Verein	-10.2129
default	-10.2129
▁bleiben	-10.215
▁receive	-10.2152
▁older	-10.2153
▁Tod	-10.2164
▁solar	-10.2173
▁sub	-10.2175
▁bringen	-10.2183
▁Reise	-10.2186
▁ball	-10.219
▁somit	-10.2194
Node	-10.2198
▁eigentlich	-10.2206
▁gave	-10.221
▁middle	-10.2213
▁scientific	-10.2216
▁liegen	-10.2217
▁meet	-10.2222
▁helfen	-10.223
client	-10.223
▁Regel	-10.2232
▁Erfolg	-10.2232
▁Street	-10.2236
▁await	-10.2238
▁Life	-10.224
▁compared	-10.2241
▁models	-10.2242
"]	-10.2243
▁buy	-10.2253
straße	-10.2254
▁Mitte	-10.2257
sten	-10.2258
▁images	-10.2262
▁instance	-10.2262
db	-10.2267
▁double	-10.227
▁Express	-10.2278
▁objects	-10.2279
▁mental	-10.2287
▁Best	-10.2294
AB	-10.2296
▁pass	-10.2298
▁pair	-10.2312
▁south	-10.2313
▁Haupt	-10.2324
▁index	-10.2325
▁Sein	-10.2333
▁although	-10.2351
▁Gebäude	-10.2354
▁29	-10.2357
▁(1	-10.2362
term	-10.2365
▁White	-10.2369
▁quite	-10.2375
ische	-10.2381
ca	-10.2381
ness	-10.2382
tag	-10.2387
▁Australian	-10.2394
ist	-10.2408
▁gehören	-10.242
▁-1	-10.2421
▁release	-10.2428
▁Saint	-10.2437
▁1999	-10.2438
▁request	-10.2439
▁memory	-10.2441
Text	-10.2444
▁sugar	-10.2446
▁flow	-10.245
val	-10.2453
▁Schule	-10.2453
▁Charles	-10.2458
_3	-10.2462
use	-10.2465
▁search	-10.2465
▁spread	-10.2465
▁exercise	-10.2467
true	-10.247
▁Chinese	-10.2476
▁projects	-10.2483
▁Free	-10.2483
▁führen	-10.2486
▁Why	-10.2489
▁genannt	-10.2494
▁front	-10.2495
▁Unterstützung	-10.2496
▁Don	-10.2502
▁18.	-10.251
▁Sicherheit	-10.251
▁bring	-10.2511
▁birth	-10.2516
▁running	-10.2518
▁meiner	-10.2519
▁Österreich	-10.2521
▁5,	-10.2523
▁weit	-10.2523
▁News	-10.2529
▁occurs	-10.2534
ler	-10.2535
▁Mark	-10.2537
2.	-10.254
▁Division	-10.2541
▁seems	-10.2541
▁Richtung	-10.2546
▁mass	-10.2546
form	-10.2547
▁graph	-10.2551
▁supply	-10.2554
▁female	-10.2556
▁width	-10.2559
▁El	-10.2559
▁act	-10.2565
▁Richard	-10.2566
▁financial	-10.2567
▁Karriere	-10.257
▁halten	-10.2571
overline	-10.2573
▁band	-10.2574
▁save	-10.2584
▁Super	-10.2589
▁package	-10.2591
push	-10.2592
▁increasing	-10.2593
▁direct	-10.2593
▁highly	-10.2593
▁werde	-10.2602
stars	-10.2613
▁completed	-10.2617
▁jede	-10.2618
▁Company	-10.2618
▁Auswahl	-10.2619
▁Western	-10.2625
▁8.	-10.2627
▁weiß	-10.2628
▁III	-10.263
▁einigen	-10.2631
NAME	-10.2633
▁jedem	-10.2644
▁therefore	-10.2645
und	-10.2648
▁Jesus	-10.2653
▁Johann	-10.2655
▁Ob	-10.2655
▁Beginn	-10.2663
▁office	-10.2666
▁television	-10.2681
▁os	-10.2689
▁starting	-10.269
▁schließlich	-10.269
▁Because	-10.2696
None	-10.2707
▁teaching	-10.2714
▁returned	-10.2714
▁Even	-10.272
64	-10.2726
▁ice	-10.2733
▁character	-10.2739
▁creating	-10.2743
▁greatest	-10.2759
▁selected	-10.2759
▁Mutter	-10.2766
▁diseases	-10.277
na	-10.2776
status	-10.278
▁Social	-10.2786
▁Frankfurt	-10.2792
▁track	-10.2795
▁Information	-10.2798
li	-10.28
bin	-10.2801
▁successful	-10.2807
▁Jahrhunderts	-10.2814
▁Nachdem	-10.2816
▁protein	-10.2821
▁remains	-10.2826
▁followed	-10.2829
▁doctor	-10.2832
▁District	-10.2833
▁Mitglieder	-10.2833
}\	-10.2836
▁Themen	-10.2844
▁Medien	-10.2845
▁Women	-10.2845
▁machine	-10.2846
▁1950	-10.285
▁Deutsche	-10.2853
▁Spielen	-10.2856
▁Games	-10.2859
▁bacteria	-10.2862
▁apply	-10.2868
▁poor	-10.2873
▁decision	-10.2875
▁Mannschaft	-10.2876
day	-10.288
▁erreichen	-10.2887
▁overall	-10.2888
▁Partner	-10.2897
leq	-10.2901
])	-10.2906
▁humans	-10.2908
▁Stelle	-10.291
bach	-10.2916
▁limited	-10.292
__	-10.2929
▁affect	-10.2931
▁soon	-10.2931
▁Alter	-10.2936
▁75	-10.2941
▁balls	-10.2942
▁Management	-10.2944
▁Vater	-10.2946
▁rule	-10.2961
▁Programm	-10.2964
▁teacher	-10.2969
▁Kreis	-10.2977
▁Tour	-10.298
▁scale	-10.2982
join	-10.2985
▁${	-10.2986
im	-10.2988
▁garden	-10.2988
▁card	-10.2989
▁village	-10.2993
▁Facebook	-10.2993
▁Windows	-10.2993
▁Personal	-10.2994
▁changed	-10.2995
▁alten	-10.2998
▁Energie	-10.3001
▁useful	-10.3004
▁Kontakt	-10.3005
▁App	-10.3011
▁Kind	-10.3017
▁lack	-10.3021
▁sagen	-10.3022
son	-10.3023
▁Neu	-10.3033
▁diet	-10.3039
▁Text	-10.3046
▁Schweiz	-10.3047
▁Public	-10.3058
▁darf	-10.306
▁entwickelt	-10.3066
Map	-10.3067
▁q	-10.3075
▁Tochter	-10.3078
▁deep	-10.3081
▁pages	-10.3081
▁Kilometer	-10.3092
▁arbeiten	-10.3093
▁adults	-10.3096
core	-10.3097
▁raise	-10.3099
▁tell	-10.311
▁Beim	-10.3115
▁Ausbildung	-10.312
▁heißt	-10.3125
▁brought	-10.3127
▁outcomes	-10.3129
item	-10.313
▁hands	-10.3136
▁vielleicht	-10.3144
▁distributed	-10.3147
▁wobei	-10.3149
res	-10.3152
▁testing	-10.3154
▁Bedeutung	-10.3159
▁document	-10.3163
▁zehn	-10.3163
▁buildings	-10.3163
▁devices	-10.3165
▁link	-10.3165
▁remove	-10.3177
▁situation	-10.3181
▁cross	-10.3184
▁district	-10.3191
▁Schutz	-10.3192
service	-10.3192
▁appear	-10.3193
▁nearly	-10.3196
▁seven	-10.3199
▁welches	-10.32
▁copy	-10.3201
▁web	-10.3201
output	-10.3207
▁400	-10.3216
▁sent	-10.3221
▁führte	-10.3223
▁app	-10.3225
▁highest	-10.3228
▁Another	-10.3231
▁Nur	-10.3233
▁task	-10.3235
▁dog	-10.3236
▁ganze	-10.3242
▁15.	-10.3244
message	-10.3251
▁node	-10.3251
▁erneut	-10.3253
▁Green	-10.3266
▁sites	-10.3266
ig	-10.327
▁1998	-10.3279
▁1945	-10.328
▁allowed	-10.3283
old	-10.3289
▁Männer	-10.3296
▁asked	-10.3297
▁infection	-10.3303
▁typically	-10.331
da	-10.3313
▁Lake	-10.3316
▁purpose	-10.3317
▁Water	-10.3317
▁bool	-10.3317
▁denominator	-10.3324
▁20.	-10.3331
▁capacity	-10.3333
▁Canadian	-10.3335
▁17.	-10.3338
▁Person	-10.3343
▁Journal	-10.3344
▁bit	-10.3351
▁3:	-10.3352
▁matrix	-10.3354
read	-10.3355
▁organization	-10.3358
▁road	-10.3363
▁Los	-10.3364
▁Nähe	-10.3365
▁kaum	-10.3371
▁goes	-10.3372
This	-10.3378
▁Politiker	-10.3381
▁block	-10.3384
▁zweite	-10.3385
▁Joseph	-10.3387
}{2}	-10.3392
▁Bevölkerung	-10.3396
▁teeth	-10.341
▁applications	-10.3418
▁ancient	-10.342
▁Army	-10.3421
▁review	-10.3431
▁leave	-10.3433
▁continued	-10.344
ka	-10.3443
▁bisher	-10.3443
▁command	-10.3444
▁cookies	-10.3447
▁13.	-10.3448
▁11.	-10.3454
▁tätig	-10.3457
▁Werk	-10.3461
▁item	-10.3463
▁bitte	-10.347
▁zahlreiche	-10.3471
▁Zudem	-10.3477
▁equipment	-10.3478
▁director	-10.348
▁element	-10.3484
Event	-10.3485
▁combination	-10.3487
▁Berg	-10.3492
github	-10.3501
▁Polizei	-10.3502
▁bad	-10.3508
ts	-10.3513
▁Year	-10.3514
▁OF	-10.3515
▁workers	-10.3517
▁told	-10.3519
mit	-10.3522
▁Nacht	-10.3529
la	-10.3533
version	-10.3534
▁Al	-10.3535
0^\	-10.354
▁Jetzt	-10.3543
▁31	-10.355
▁eight	-10.3557
▁simplify	-10.3562
die	-10.357
▁wollte	-10.3574
▁Hall	-10.3583
▁Once	-10.359
▁Einwohner	-10.3592
▁Central	-10.3598
▁König	-10.3598
write	-10.36
▁Boden	-10.3604
▁college	-10.3606
▁Licht	-10.3612
▁Note	-10.3614
▁tank	-10.3617
▁häufig	-10.3619
ar	-10.3619
▁oben	-10.3623
count	-10.3624
event	-10.3629
▁goals	-10.3632
▁birds	-10.3645
▁ebenso	-10.365
▁trying	-10.3651
():	-10.3654
▁techniques	-10.3655
▁16.	-10.3655
▁news	-10.3664
▁Viele	-10.3665
▁10.	-10.3668
▁providing	-10.3673
▁hast	-10.3673
▁fill	-10.3673
▁protection	-10.3677
▁struct	-10.3679
Index	-10.3689
▁party	-10.369
less	-10.3694
▁Jan	-10.3696
▁users	-10.3697
▁names	-10.3704
▁recently	-10.371
▁direction	-10.3711
▁saw	-10.3714
▁echo	-10.3716
▁waste	-10.373
▁Japanese	-10.3731
▁Bitte	-10.3738
Request	-10.3738
▁woman	-10.3747
▁Copyright	-10.3752
▁Dazu	-10.3754
▁responsible	-10.3755
▁hätte	-10.3761
▁playing	-10.3766
▁Ra	-10.3769
▁attack	-10.3773
▁sun	-10.3777
▁deshalb	-10.3777
Item	-10.3782
▁Academy	-10.3785
▁examples	-10.3787
▁finding	-10.3794
▁sign	-10.3796
▁rules	-10.3804
▁gehörte	-10.3814
▁measures	-10.3827
▁guten	-10.3827
▁Bay	-10.3828
▁thinking	-10.3829
▁gefunden	-10.383
▁trade	-10.3841
▁12.	-10.385
▁Home	-10.3852
▁legal	-10.3853
▁bedeutet	-10.3853
▁Selbst	-10.3854
▁Köln	-10.3857
»	-10.386
image	-10.386
▁concept	-10.386
▁eingesetzt	-10.3864
▁Spanish	-10.3867
▁serious	-10.3874
▁travel	-10.3879
▁income	-10.3882
▁14.	-10.3888
▁danach	-10.3897
▁trat	-10.3898
▁dry	-10.3899
(0)	-10.3914
View	-10.3914
▁Me	-10.3914
▁Weise	-10.3915
▁ask	-10.3924
▁Verlag	-10.3925
▁Alexander	-10.3929
▁clean	-10.3933
▁married	-10.3933
▁Material	-10.3934
▁hohen	-10.3935
util	-10.3937
▁everything	-10.3939
▁substitute	-10.3941
▁Henry	-10.3944
▁importance	-10.3944
)]	-10.3949
▁Star	-10.3955
▁himself	-10.3959
▁Theater	-10.3962
▁Court	-10.3963
▁offers	-10.3963
▁/*	-10.3964
▁race	-10.3965
▁option	-10.3973
▁recorded	-10.3976
▁discovered	-10.3983
▁hohe	-10.3984
▁fuel	-10.3986
</	-10.3989
▁Dorf	-10.3991
▁Bayern	-10.3991
▁1996	-10.3992
▁freuen	-10.3994
▁veröffentlicht	-10.4009
▁max	-10.4011
▁Records	-10.4018
▁vector	-10.4021
▁0)	-10.4022
▁piece	-10.4027
▁chemical	-10.4028
▁Nutzung	-10.4028
▁Album	-10.4031
▁Suche	-10.4033
object	-10.4034
▁Grand	-10.4035
▁describe	-10.4036
▁Tagen	-10.4039
▁completely	-10.4039
run	-10.4044
let	-10.4051
Size	-10.4052
▁Wald	-10.4052
10	-10.4053
▁Haut	-10.4058
▁Their	-10.4062
▁Ben	-10.4068
Result	-10.4069
▁letter	-10.4071
dict	-10.4071
▁Mary	-10.4075
date	-10.4077
▁figure	-10.4081
am	-10.4088
▁1997	-10.4089
▁appears	-10.4089
▁resource	-10.409
ion	-10.4091
▁approximately	-10.4092
▁di	-10.4093
Time	-10.4097
▁influence	-10.4098
▁board	-10.4103
▁Radio	-10.4104
rd	-10.4105
▁communication	-10.4106
▁passed	-10.4109
ra	-10.4111
▁1995	-10.4111
▁Ja	-10.4116
▁basis	-10.4116
▁eating	-10.4118
▁frei	-10.4126
▁squares	-10.4126
▁damals	-10.4127
▁Time	-10.4127
▁drug	-10.4127
▁Go	-10.4128
▁rates	-10.4132
▁Standard	-10.4132
▁deal	-10.414
▁performed	-10.414
▁Dank	-10.4143
▁Max	-10.4151
▁fields	-10.4156
▁Set	-10.4157
▁fest	-10.4161
rs	-10.4163
▁suchen	-10.4169
▁aktuellen	-10.417
▁tool	-10.4179
▁earlier	-10.4184
▁Politik	-10.4184
▁teams	-10.4185
▁klar	-10.4193
▁moving	-10.4193
color	-10.4202
wissenschaftlich	-10.4204
▁daran	-10.4207
co	-10.4208
▁note	-10.4208
▁staff	-10.4209
▁entfernt	-10.4211
(2)	-10.4214
▁$$	-10.4227
▁actual	-10.423
Wir	-10.4236
▁Nord	-10.4238
▁Main	-10.4239
▁Over	-10.425
▁federal	-10.4254
▁stay	-10.4256
▁processes	-10.4258
▁weiterhin	-10.4259
▁Wert	-10.4263
▁jedes	-10.4264
▁appropriate	-10.427
▁efforts	-10.427
▁1}	-10.4271
Ich	-10.4273
▁distribution	-10.4277
▁hot	-10.4284
▁details	-10.4286
▁cold	-10.4287
do	-10.4288
▁operations	-10.4289
▁Regierung	-10.429
▁erreicht	-10.4291
▁anything	-10.4292
ac	-10.4292
▁win	-10.4298
▁weather	-10.4308
▁ge	-10.4318
▁Next	-10.4325
level	-10.4349
{1	-10.4352
▁gets	-10.4358
▁Israel	-10.4361
▁Garten	-10.4362
▁gold	-10.4369
▁gegründet	-10.4381
cm	-10.4383
▁eventually	-10.4388
▁Children	-10.4396
▁pieces	-10.4402
▁Business	-10.4404
▁bottom	-10.4407
▁Wilhelm	-10.4408
▁OR	-10.4409
▁Gebiet	-10.441
label	-10.441
▁Partei	-10.4415
▁Mr	-10.4421
▁Vergleich	-10.4423
▁Law	-10.4424
▁affected	-10.4427
▁sucht	-10.4433
▁gewesen	-10.4434
▁cultural	-10.4435
▁wind	-10.4435
mm	-10.4445
▁alone	-10.4445
▁stories	-10.4449
▁structures	-10.4449
▁forward	-10.445
▁feature	-10.4452
▁nation	-10.4453
▁Landkreis	-10.4458
▁winter	-10.4459
▁AG	-10.4462
▁joined	-10.4463
▁Schüler	-10.4475
▁Siehe	-10.4476
▁min	-10.4479
▁Frankreich	-10.4482
geq	-10.4488
table	-10.4494
▁everyone	-10.4495
▁Foundation	-10.4497
▁select	-10.45
▁increases	-10.4504
sh	-10.451
▁boxes	-10.4516
▁opened	-10.4518
▁severe	-10.4521
^2$	-10.4525
▁involves	-10.4527
▁mindestens	-10.4531
▁yourself	-10.4531
▁Festival	-10.4535
▁layer	-10.454
▁Jugend	-10.4544
▁spielt	-10.455
reponame	-10.4551
▁remain	-10.4553
▁Computer	-10.4564
▁Hause	-10.4565
▁historical	-10.457
et	-10.4572
▁beide	-10.4574
▁1994	-10.4577
▁operation	-10.4577
▁j	-10.4579
▁Early	-10.4583
▁Erfahrung	-10.4586
update	-10.459
▁score	-10.459
▁bevor	-10.4593
▁heraus	-10.4593
▁talk	-10.4598
▁identity	-10.4599
▁billion	-10.46
Client	-10.4601
▁eyes	-10.4601
▁Luft	-10.4603
▁existing	-10.4607
▁Men	-10.4608
▁perform	-10.4608
▁beste	-10.4613
▁friend	-10.4618
▁files	-10.4624
▁Lord	-10.4625
▁removed	-10.4628
];	-10.463
▁window	-10.463
▁arbeitete	-10.4639
)}	-10.464
▁commonly	-10.4641
▁1992	-10.4651
▁native	-10.4653
▁args	-10.4653
▁choice	-10.4654
box	-10.4654
▁baby	-10.4657
▁beyond	-10.4661
▁sieben	-10.4661
▁async	-10.4663
beta	-10.4664
▁Kopf	-10.4668
▁rock	-10.4672
▁Zwei	-10.4673
▁giving	-10.4674
▁Today	-10.4676
▁schwer	-10.4677
▁Heute	-10.4688
▁3)	-10.4692
▁Florida	-10.4699
▁river	-10.4707
▁applied	-10.4712
▁exist	-10.4717
off	-10.4726
group	-10.4727
▁resulting	-10.4729
▁statement	-10.4729
▁module	-10.4743
▁origin	-10.4748
▁config	-10.4748
▁component	-10.4755
▁meinen	-10.4759
▁Mexico	-10.4761
lib	-10.477
isch	-10.4778
▁Frank	-10.4785
▁Schweizer	-10.4786
▁reasons	-10.4792
▁außerdem	-10.4795
ism	-10.4798
▁genutzt	-10.4799
▁relatively	-10.48
▁Leistung	-10.4803
▁combined	-10.4806
▁fruit	-10.482
▁Druck	-10.4821
target	-10.4822
▁Probleme	-10.4822
▁separate	-10.4823
▁Unser	-10.4824
▁wife	-10.4824
chen	-10.4825
number	-10.4833
▁ones	-10.484
▁colors	-10.4842
▁Reihe	-10.4842
▁Sea	-10.4845
▁gewählt	-10.4846
▁coming	-10.4849
▁official	-10.4854
▁nothing	-10.4855
▁fourth	-10.4861
▁opportunity	-10.4875
▁Betrieb	-10.4883
▁65	-10.4888
▁display	-10.4891
ling	-10.4896
▁Russian	-10.49
▁dürfen	-10.49
▁Minister	-10.4905
▁Big	-10.4915
▁Media	-10.4916
▁cities	-10.4918
Das	-10.4923
▁sample	-10.4924
case	-10.4929
▁fully	-10.493
center	-10.4935
amerikanischer	-10.4937
▁plans	-10.4939
▁Burg	-10.4941
▁Unternehmens	-10.4945
▁Ist	-10.4946
▁verwenden	-10.4951
▁reduced	-10.4956
ta	-10.4958
▁benefit	-10.496
▁letters	-10.496
▁proper	-10.4961
▁maintain	-10.4962
▁letzte	-10.4967
▁·	-10.4971
ian	-10.4978
▁kg	-10.4985
▁novel	-10.4985
▁rise	-10.4988
Message	-10.4988
▁unterstützt	-10.4989
▁Bar	-10.4989
▁components	-10.4995
▁covered	-10.5007
▁Foto	-10.5008
▁gleichen	-10.5009
▁wants	-10.5014
▁odd	-10.5015
request	-10.5015
▁Möglichkeiten	-10.5022
▁studierte	-10.5023
▁Verbindung	-10.5023
▁forces	-10.5024
▁economy	-10.5026
▁follows	-10.5028
▁Mittel	-10.5028
2,	-10.5033
▁Americans	-10.5037
▁zuvor	-10.5037
▁picture	-10.5043
▁president	-10.5052
▁mid	-10.5068
▁gleichzeitig	-10.5073
▁professor	-10.5073
context	-10.5078
▁girls	-10.5078
width	-10.5079
__(	-10.5081
▁Or	-10.509
▁folgende	-10.5091
shape	-10.5092
▁client	-10.5096
▁introduced	-10.5097
▁parallel	-10.5102
▁Development	-10.5103
▁Read	-10.5109
▁independent	-10.5111
▁1930	-10.5114
▁therapy	-10.5121
▁Schritt	-10.5121
▁library	-10.5123
▁didn	-10.5127
▁6,	-10.5129
▁diabetes	-10.5134
▁Heinrich	-10.514
▁Recht	-10.514
▁DNA	-10.5143
▁Virginia	-10.5145
▁Punkte	-10.5146
▁Ober	-10.5152
▁valid	-10.5154
▁acht	-10.516
▁Road	-10.5163
16	-10.5166
▁balance	-10.5166
▁treffen	-10.5167
{3	-10.5167
▁Make	-10.5168
▁Basis	-10.517
▁Insel	-10.517
▁auto	-10.5175
▁Ergebnisse	-10.5175
▁Chicago	-10.518
▁definition	-10.5184
▁choices	-10.5184
▁lesen	-10.5189
▁host	-10.5193
▁Ge	-10.5195
▁practices	-10.5198
▁yellow	-10.5198
▁befinden	-10.52
▁achieve	-10.5201
▁Plan	-10.5202
▁religious	-10.5216
▁seem	-10.5219
filter	-10.522
link	-10.5222
▁setzen	-10.5226
▁blieb	-10.5227
▁Groß	-10.5229
▁THE	-10.5229
▁pairs	-10.523
▁$1	-10.5231
Code	-10.5236
▁setting	-10.524
▁NULL	-10.524
▁7,	-10.5241
▁multiply	-10.5247
▁Werke	-10.525
▁dark	-10.525
assert	-10.5252
▁1991	-10.5254
▁Kindern	-10.5258
▁interface	-10.5263
▁Power	-10.5264
stein	-10.5265
▁Augen	-10.5265
▁actions	-10.5266
▁virus	-10.5267
eq	-10.5268
}$,	-10.5272
▁CD	-10.5282
▁Data	-10.5282
▁1$,	-10.5285
▁effort	-10.5285
▁Sun	-10.5286
▁Amt	-10.5287
▁Sitz	-10.5288
▁einzelnen	-10.5288
▁limit	-10.5293
▁Zusammenarbeit	-10.5297
▁Nun	-10.5298
▁earth	-10.5305
gen	-10.5308
▁reference	-10.5309
▁acid	-10.5312
▁classes	-10.5319
▁seien	-10.5322
▁fun	-10.5322
▁Project	-10.5322
ref	-10.5326
▁topic	-10.5326
▁teil	-10.533
▁plane	-10.5332
▁pounds	-10.5335
▁64	-10.5338
▁Bio	-10.5339
▁Abend	-10.5339
▁Leipzig	-10.5343
▁Rock	-10.5349
[0]	-10.5349
▁IT	-10.5349
bereich	-10.5353
▁Stein	-10.5354
▁connection	-10.5357
▁math	-10.5362
▁originally	-10.5372
▁(!	-10.5375
BC	-10.5391
▁records	-10.5393
▁ten	-10.5393
source	-10.5395
▁commercial	-10.5404
ke	-10.5409
▁Norden	-10.541
▁majority	-10.5414
▁Both	-10.5414
▁True	-10.5419
▁{}	-10.5423
▁standards	-10.5424
▁drugs	-10.5424
▁becoming	-10.5426
▁chance	-10.5438
▁upper	-10.5439
▁Government	-10.5442
ley	-10.5447
▁train	-10.5448
▁Schloss	-10.5448
▁flowers	-10.545
▁Greek	-10.5455
▁planning	-10.5457
▁indem	-10.546
▁signs	-10.5461
▁Wirtschaft	-10.5461
▁Spaß	-10.547
▁darunter	-10.5473
Array	-10.5475
-19	-10.5478
▁About	-10.5481
}{\	-10.5489
▁nachdem	-10.549
▁Erst	-10.5493
▁powerful	-10.5495
▁announced	-10.5499
▁fit	-10.55
▁Produktion	-10.5501
$$	-10.5505
▁1993	-10.5505
▁'./	-10.5508
▁patterns	-10.5511
▁satisfy	-10.5515
▁Zimmer	-10.5516
For	-10.5522
▁interesting	-10.5524
▁(3	-10.5527
▁parent	-10.5529
Model	-10.553
▁Gäste	-10.5532
▁cube	-10.5533
▁res	-10.5534
feld	-10.5535
▁storage	-10.5536
▁election	-10.554
▁Its	-10.5545
view	-10.5556
utils	-10.5558
▁west	-10.5558
▁Second	-10.5561
▁würden	-10.5568
▁Verwendung	-10.5568
▁spend	-10.5574
▁leben	-10.5574
▁groß	-10.5576
env	-10.5581
▁erfolgt	-10.5581
▁annual	-10.5587
▁Einzel	-10.5589
▁erklärt	-10.5592
▁vergangenen	-10.5593
▁1989	-10.5599
float	-10.56
▁alternative	-10.5611
▁treat	-10.5612
▁1920	-10.5621
Input	-10.5622
▁cycle	-10.5626
▁heutigen	-10.5642
▁Smith	-10.5645
▁Sprache	-10.565
ity	-10.5653
▁Entscheidung	-10.5657
▁ließ	-10.5661
Г	-10.5664
▁bald	-10.5671
▁vertices	-10.5673
▁neues	-10.5676
▁id	-10.5676
▁Ergebnis	-10.5677
▁edge	-10.5682
▁radio	-10.5686
▁drawn	-10.5694
▁Tor	-10.5695
▁180	-10.5697
▁leider	-10.5697
▁connected	-10.5706
False	-10.5708
▁load	-10.5715
▁Long	-10.5716
▁Technology	-10.5719
-1	-10.5721
▁signed	-10.5723
▁erfolgreich	-10.5724
▁Students	-10.5725
▁division	-10.5729
▁songs	-10.5732
▁progress	-10.5734
▁server	-10.5734
▁listed	-10.5735
▁Beitrag	-10.5741
▁organizations	-10.5747
▁identified	-10.5748
é	-10.5755
▁guide	-10.5756
xy	-10.5758
▁250	-10.5769
zeit	-10.5769
men	-10.5771
▁exposure	-10.5773
▁previously	-10.5774
▁cubic	-10.5784
)$.	-10.579
▁decided	-10.579
▁famous	-10.579
▁Je	-10.5791
▁Liga	-10.5791
▁presented	-10.5795
row	-10.5797
▁meinem	-10.5797
▁setzt	-10.5804
▁serve	-10.5805
‘	-10.5805
With	-10.5808
▁Franz	-10.5813
▁weltweit	-10.5816
▁Mädchen	-10.5821
▁Serie	-10.5822
▁Office	-10.5824
Response	-10.5832
▁Are	-10.5837
▁killed	-10.5838
▁metal	-10.5841
▁begin	-10.5851
▁Größe	-10.5852
▁erfolgte	-10.5858
▁Congress	-10.5858
ctx	-10.5871
▁column	-10.5873
▁reached	-10.5873
▁Stück	-10.5873
▁Apple	-10.5875
ui	-10.5875
No	-10.5876
params	-10.5877
▁Erfahrungen	-10.588
▁solche	-10.5885
▁CO	-10.5888
ur	-10.5888
▁mobile	-10.5889
▁Carolina	-10.5889
▁mehreren	-10.589
next	-10.5891
([	-10.5892
▁regions	-10.5893
back	-10.5897
▁laut	-10.5903
▁toward	-10.5909
▁teilweise	-10.5911
▁capital	-10.5913
▁founded	-10.5914
▁Jewish	-10.5915
▁Regie	-10.5918
▁Kauf	-10.592
Status	-10.592
▁spring	-10.5923
▁amounts	-10.5926
▁floor	-10.5927
▁immediately	-10.5928
▁hope	-10.5938
▁emissions	-10.5945
options	-10.5951
▁description	-10.5952
▁kennen	-10.5953
▁suggests	-10.5956
▁Louis	-10.5958
▁handle	-10.5962
▁bringt	-10.5962
▁chosen	-10.5969
body	-10.597
▁Aufgaben	-10.5974
▁court	-10.598
▁1$.	-10.5982
▁adding	-10.5988
▁Staaten	-10.5989
scale	-10.6001
▁Lösung	-10.6003
▁aktiv	-10.6006
▁fat	-10.6011
▁thousands	-10.6014
▁planet	-10.6015
which	-10.6017
▁Behandlung	-10.602
▁gestellt	-10.602
▁Just	-10.6021
▁container	-10.6021
▁unterstützen	-10.6022
▁numerous	-10.6023
▁derzeit	-10.6029
▁update	-10.6029
▁Deutsch	-10.6032
▁Arbeiten	-10.6035
▁nimmt	-10.6035
▁Wort	-10.6035
▁dadurch	-10.6036
▁coordinates	-10.6051
▁showed	-10.6053
block	-10.6053
▁marbles	-10.6053
▁differences	-10.6055
▁Amazon	-10.6056
▁Nr	-10.6058
▁warm	-10.6063
▁ganzen	-10.6065
▁appeared	-10.6066
▁Firma	-10.6074
▁Self	-10.6075
▁containing	-10.6076
▁represent	-10.6077
▁Herz	-10.6081
main	-10.6081
▁3$	-10.6084
content	-10.6086
▁represents	-10.6087
▁demand	-10.609
▁0$,	-10.6099
▁random	-10.6099
”.	-10.6102
std	-10.6102
▁easier	-10.6104
▁immune	-10.6105
▁multi	-10.6109
▁machte	-10.6115
▁gain	-10.6117
▁happen	-10.612
User	-10.6122
{(	-10.6124
▁Medical	-10.6127
▁Space	-10.6137
▁erster	-10.6139
▁Arts	-10.6144
▁Training	-10.6149
▁presence	-10.6153
▁educational	-10.6156
style	-10.6168
20	-10.6168
▁gewinnen	-10.6169
▁dogs	-10.6169
12	-10.6172
▁Monate	-10.6172
▁Asia	-10.6177
Manager	-10.6183
▁consists	-10.6183
▁Stuttgart	-10.6185
▁anders	-10.6186
▁lived	-10.6189
▁Wirtschafts	-10.6196
▁schön	-10.6197
▁Old	-10.6197
▁Last	-10.6198
▁characters	-10.62
▁Umgebung	-10.6202
▁Bundes	-10.6204
props	-10.6213
▁geworden	-10.6214
▁notes	-10.6214
current	-10.6217
▁notice	-10.6218
▁4:	-10.6219
▁Vertrag	-10.6219
^{	-10.622
▁erfahren	-10.6232
▁ideal	-10.6241
▁milk	-10.6242
▁Stand	-10.6243
▁Gruppen	-10.6244
▁meeting	-10.6245
▁Human	-10.6247
▁array	-10.6249
▁21.	-10.625
▁Literatur	-10.6251
sch	-10.6263
▁seeds	-10.6263
▁$5	-10.6264
▁Food	-10.6267
▁represented	-10.6269
▁Italian	-10.6272
▁daughter	-10.6272
"),	-10.6277
▁forest	-10.6278
▁Hersteller	-10.6282
ern	-10.6285
▁Daniel	-10.629
};	-10.6291
▁brother	-10.6293
▁Berliner	-10.6294
red	-10.6299
▁wrong	-10.6302
▁challenges	-10.6306
▁reports	-10.6313
▁park	-10.6315
▁**	-10.6318
▁grade	-10.6321
▁obtain	-10.6325
triangle	-10.6327
▁east	-10.6329
▁Georg	-10.6331
▁Substituting	-10.6335
now	-10.6335
▁Anzahl	-10.634
▁Essen	-10.6341
▁drawing	-10.6342
▁größten	-10.6343
].	-10.6344
▁van	-10.6345
tal	-10.6347
▁denote	-10.635
▁carry	-10.6355
art	-10.6361
▁requirements	-10.6366
bau	-10.6367
▁Teilnehmer	-10.6369
ies	-10.6369
ver	-10.637
▁believed	-10.6371
▁hair	-10.6371
▁dein	-10.6374
▁1988	-10.6376
▁electricity	-10.6382
▁wall	-10.6384
▁coefficients	-10.6385
ter	-10.6386
▁2022	-10.6389
▁alt	-10.6393
AC	-10.6395
Der	-10.6397
Element	-10.6399
should	-10.64
▁recht	-10.6401
▁missing	-10.6411
▁remember	-10.6411
▁supported	-10.6413
▁Lebens	-10.6416
▁Check	-10.6416
▁carried	-10.6424
▁©	-10.6424
▁plastic	-10.6426
▁Situation	-10.6428
▁drive	-10.6432
find	-10.6433
▁Hill	-10.6439
Version	-10.6439
▁Blue	-10.6441
▁erreichte	-10.6443
▁mostly	-10.6449
▁Fotos	-10.6454
▁lengths	-10.6454
Field	-10.6455
▁heavy	-10.6462
App	-10.6464
ok	-10.6465
▁NOT	-10.6466
▁lag	-10.6472
ste	-10.648
▁island	-10.6481
stadt	-10.6486
▁writer	-10.6487
▁Determine	-10.6488
▁tissue	-10.649
▁Zwischen	-10.6492
▁wild	-10.6492
▁wer	-10.6496
▁Microsoft	-10.65
▁explain	-10.6506
▁medicine	-10.6508
▁wood	-10.651
▁42	-10.6514
From	-10.6517
▁Finally	-10.6519
▁Interesse	-10.6524
▁knapp	-10.6527
▁-2	-10.6527
▁adult	-10.6529
▁laws	-10.6534
▁Zahl	-10.6534
▁Angaben	-10.654
▁please	-10.6541
▁wichtige	-10.6544
▁Süden	-10.6544
▁Meister	-10.6545
▁kamen	-10.6554
▁Show	-10.6554
▁respectively	-10.6555
▁Krieg	-10.6556
open	-10.656
▁helped	-10.6563
▁Zweiten	-10.6564
$?	-10.6565
▁collected	-10.6569
▁feed	-10.6572
▁Fußball	-10.658
▁wechselte	-10.6581
▁huge	-10.6584
▁generation	-10.6587
root	-10.6588
▁gegeben	-10.6589
▁entstand	-10.6597
▁impl	-10.6602
▁Ok	-10.6603
free	-10.6604
▁Sonntag	-10.6607
▁generate	-10.6612
https	-10.6613
▁vision	-10.6617
▁rich	-10.6621
▁alte	-10.6624
▁Provinz	-10.6625
split	-10.6627
▁Kraft	-10.6629
▁NASA	-10.6633
▁challenge	-10.6634
▁vertex	-10.6636
▁Praxis	-10.6638
last	-10.6645
▁Download	-10.6649
®	-10.6653
▁Kingdom	-10.6653
Count	-10.6655
▁classroom	-10.6659
▁dar	-10.6659
▁expressed	-10.666
▁engineering	-10.6663
▁consumption	-10.6664
np	-10.6666
▁Football	-10.6666
▁charge	-10.6673
▁Catholic	-10.6678
▁Play	-10.6679
▁opportunities	-10.6679
▁send	-10.6679
▁ehemaligen	-10.6681
response	-10.6684
▁decades	-10.6685
▁articles	-10.6693
▁Energy	-10.6695
▁ship	-10.6697
▁conducted	-10.6698
▁2$	-10.6701
my	-10.6701
check	-10.6702
▁Bonus	-10.6703
▁überhaupt	-10.6703
▁background	-10.6708
▁PC	-10.6708
doc	-10.671
▁academic	-10.6711
▁Library	-10.6712
per	-10.6712
▁Dir	-10.6713
▁Wind	-10.6716
▁Hof	-10.6725
▁finished	-10.6726
▁noted	-10.6727
▁Besuch	-10.6727
▁bone	-10.6727
▁Brown	-10.673
\\	-10.6736
▁injury	-10.6741
▁sets	-10.6744
▁Board	-10.6752
▁Jean	-10.6756
▁southern	-10.6757
(0,	-10.6757
▁turned	-10.6758
2)	-10.6758
mod	-10.6759
▁findings	-10.6759
▁raised	-10.6761
▁zusätzlich	-10.6762
Options	-10.6763
▁extremely	-10.6763
▁worth	-10.6765
obj	-10.6767
▁bist	-10.6769
▁Leute	-10.6772
▁sports	-10.6773
▁Consider	-10.6774
page	-10.6775
▁closed	-10.6781
▁lediglich	-10.6782
▁stellte	-10.6783
▁Angeles	-10.6785
query	-10.679
▁33	-10.6794
▁Allerdings	-10.6804
▁beginnt	-10.6815
On	-10.6815
server	-10.6816
▁gesamte	-10.6817
▁entry	-10.6818
▁Championship	-10.6821
▁$4	-10.6823
▁del	-10.6823
▁estimated	-10.6823
token	-10.6823
▁interested	-10.6827
▁Menge	-10.6832
▁segment	-10.6833
▁Zealand	-10.6834
▁ermöglicht	-10.6836
▁Pflege	-10.6838
▁strength	-10.6838
burg	-10.6838
▁gesamten	-10.6838
▁mouth	-10.684
▁mut	-10.6843
▁Mar	-10.6843
load	-10.6844
px	-10.6846
related	-10.6851
▁Patienten	-10.6853
▁onto	-10.6856
▁protected	-10.6858
▁internal	-10.6858
▁failed	-10.6862
▁Register	-10.6862
▁mode	-10.6863
▁Danach	-10.6868
▁technologies	-10.6869
▁enthalten	-10.687
▁Anwendung	-10.6872
infty	-10.6874
▁employees	-10.6876
▁leaders	-10.6878
▁Love	-10.6885
▁glass	-10.6888
▁domain	-10.6888
▁Umwelt	-10.6888
▁Carl	-10.689
title	-10.689
▁mission	-10.6893
▁Abschluss	-10.6893
▁directed	-10.6894
▁recommended	-10.6895
▁core	-10.6895
▁convert	-10.6897
▁met	-10.69
-2	-10.6907
▁happens	-10.691
▁1940	-10.6916
▁welcher	-10.6918
heim	-10.692
▁log	-10.6924
train	-10.693
▁diverse	-10.6933
▁Corona	-10.6933
▁combinations	-10.6933
▁leader	-10.6933
▁hit	-10.6933
parse	-10.6937
▁starts	-10.6937
▁Teile	-10.6941
▁genetic	-10.6943
▁Pacific	-10.6944
▁Lee	-10.6945
▁Wo	-10.6945
▁tax	-10.6947
▁prior	-10.695
public	-10.6951
Base	-10.6951
▁0$.	-10.6953
▁allein	-10.6953
▁Künstler	-10.6954
▁failure	-10.6959
▁Kampf	-10.6969
▁Westen	-10.697
▁verbunden	-10.6972
▁Organisation	-10.6975
▁ihres	-10.6975
▁Klasse	-10.6975
▁treated	-10.6975
▁opposite	-10.6985
▁changing	-10.6986
▁foreign	-10.6993
▁eben	-10.7001
▁vitamin	-10.7001
▁großer	-10.7005
▁Osten	-10.7006
▁finally	-10.701
Button	-10.7011
▁variable	-10.7013
▁Industrie	-10.7015
ja	-10.7019
▁übernahm	-10.7024
▁Like	-10.7025
▁Cookies	-10.7025
▁Inc	-10.7031
▁Farben	-10.7032
▁literature	-10.7033
▁Arten	-10.7034
▁hält	-10.7036
▁wanted	-10.7039
hand	-10.7041
▁perhaps	-10.705
▁tend	-10.7051
▁Sir	-10.7053
▁plays	-10.7054
▁fight	-10.7055
▁studied	-10.706
axis	-10.7061
“)	-10.7063
▁Valley	-10.7064
▁Cross	-10.7064
▁absolute	-10.7068
▁Global	-10.7071
▁regelmäßig	-10.7074
▁Darüber	-10.7077
▁IN	-10.7081
▁remained	-10.7084
▁jeweiligen	-10.7084
▁Zeitpunkt	-10.7085
▁Historic	-10.7086
▁Wetter	-10.7092
▁Rechts	-10.7101
▁iron	-10.7104
▁tragen	-10.7105
▁enthält	-10.7106
▁junge	-10.7108
▁shared	-10.7117
▁Ireland	-10.7118
▁IS	-10.7119
▁23.	-10.7119
▁plus	-10.7129
▁determined	-10.7131
▁cat	-10.7131
▁seconds	-10.7136
Number	-10.714
▁Song	-10.7141
unwrap	-10.7143
(2	-10.7149
▁geboren	-10.7152
▁Total	-10.7154
▁Hälfte	-10.7154
▁alcohol	-10.7156
▁Präsident	-10.7156
point	-10.716
▁learned	-10.7161
▁northern	-10.7162
▁experiences	-10.7168
▁1987	-10.7168
Exception	-10.7171
▁engine	-10.7171
If	-10.7173
▁causing	-10.7176
▁angles	-10.7178
▁Trainer	-10.7184
▁erschien	-10.7185
▁civil	-10.7187
▁22.	-10.719
▁ready	-10.7197
ko	-10.7197
▁Britain	-10.7198
("$	-10.7198
▁satisfies	-10.7201
typescript	-10.7209
▁Autor	-10.7211
▁1986	-10.7214
▁Bereits	-10.7216
▁advanced	-10.722
▁ausschließlich	-10.7225
▁languages	-10.7228
▁temperatures	-10.7228
▁Studien	-10.723
▁Technik	-10.7235
op	-10.7236
▁Folgen	-10.7241
▁lernen	-10.7241
▁Civil	-10.7246
▁artists	-10.7248
▁Runde	-10.7259
▁widely	-10.7261
▁strategies	-10.7263
▁Preise	-10.7263
▁teach	-10.7263
height	-10.7266
▁referred	-10.7266
▁sector	-10.7271
▁foot	-10.7272
▁console	-10.7272
▁Summer	-10.7275
▁elected	-10.7276
▁significantly	-10.7277
▁surgery	-10.7287
▁observed	-10.7288
▁signal	-10.7289
▁(1)	-10.7292
▁Bürger	-10.7295
▁Studium	-10.7298
age	-10.7299
first	-10.7302
▁Young	-10.7308
▁Dich	-10.7312
▁rare	-10.7312
▁26.	-10.7322
▁muscle	-10.7323
step	-10.7324
▁Hintergrund	-10.7325
▁24.	-10.733
▁Welche	-10.7332
▁Community	-10.7333
▁suggest	-10.7337
▁depression	-10.7338
▁leaving	-10.7339
▁eggs	-10.7343
▁catch	-10.7343
▁whom	-10.7347
▁resistance	-10.7351
▁30.	-10.7353
▁minute	-10.7354
ma	-10.7355
▁geeignet	-10.7356
▁Funktion	-10.7356
▁bodies	-10.7358
null	-10.7362
▁internationalen	-10.7362
▁disorder	-10.7377
▁Farbe	-10.7381
▁Dinge	-10.7382
▁moment	-10.7383
▁runs	-10.7386
▁reality	-10.739
port	-10.7398
▁throw	-10.7407
▁25.	-10.7407
▁rectangle	-10.7409
▁zog	-10.7411
Image	-10.7411
▁Studies	-10.7413
'),	-10.7413
▁trip	-10.7415
▁speech	-10.7427
{5}	-10.7429
▁braucht	-10.7431
▁technique	-10.7432
«	-10.7438
▁tatsächlich	-10.7439
▁Bill	-10.744
▁Jack	-10.7442
▁paid	-10.7443
▁Anna	-10.7445
System	-10.7446
▁filled	-10.7446
▁interval	-10.7448
false	-10.745
▁Walter	-10.7456
▁num	-10.7457
▁relevant	-10.7462
▁Freitag	-10.7463
then	-10.7464
▁respect	-10.7469
▁star	-10.747
▁competition	-10.7471
▁considering	-10.7473
▁8,	-10.7481
▁/>	-10.7484
▁Tipps	-10.7485
▁Stil	-10.7486
▁Game	-10.7489
types	-10.7492
▁könnten	-10.7497
▁Republic	-10.7502
▁anyone	-10.7504
▁anschließend	-10.7506
▁emotional	-10.7511
▁27.	-10.7511
▁phase	-10.7513
▁clinical	-10.7517
▁Modell	-10.7522
▁1984	-10.7526
▁Straßen	-10.7531
zu	-10.7534
▁Three	-10.7535
▁attempt	-10.7541
▁Single	-10.7547
▁Awards	-10.755
▁Johannes	-10.7551
▁obtained	-10.7553
▁organic	-10.7554
▁Herbst	-10.7555
ax	-10.7555
▁decimal	-10.7559
▁continues	-10.7562
▁Oder	-10.7563
▁aufgenommen	-10.7565
▁approaches	-10.757
▁Wunsch	-10.7571
▁neuer	-10.7576
▁enter	-10.758
▁72	-10.7581
▁Ludwig	-10.7587
▁Weltkrieg	-10.7589
▁route	-10.7593
▁Calculate	-10.7598
▁größte	-10.7599
weg	-10.7601
▁contract	-10.7605
▁Link	-10.7607
▁Baden	-10.761
▁[…]	-10.7611
▁schaffen	-10.7613
▁28.	-10.7614
▁einzige	-10.7616
▁Gas	-10.7616
▁IV	-10.7617
▁Otto	-10.762
▁sorgen	-10.7622
▁stone	-10.7625
▁appointed	-10.7627
▁consecutive	-10.7627
▁bereit	-10.7628
▁Angebote	-10.763
▁replaced	-10.7637
▁authors	-10.7638
mannschaft	-10.7639
▁wenige	-10.7641
▁Klein	-10.7648
▁Services	-10.7649
▁Glück	-10.7651
▁zuletzt	-10.7652
▁Please	-10.7659
▁oxygen	-10.7661
▁Beschreibung	-10.7662
▁600	-10.7662
▁campaign	-10.767
▁Add	-10.7671
▁Idee	-10.7676
▁Monaten	-10.7678
▁Besucher	-10.7685
▁Math	-10.7686
iter	-10.7687
pos	-10.769
▁frequently	-10.7693
▁1985	-10.7694
▁promote	-10.7701
Component	-10.7703
▁lies	-10.7704
▁Times	-10.7705
▁morning	-10.7706
▁Kaiser	-10.7706
▁(„	-10.7707
▁34	-10.7708
▁Öl	-10.771
▁gesehen	-10.7711
▁trotz	-10.7711
▁footballers	-10.7712
▁Station	-10.7713
▁dritten	-10.7713
▁warum	-10.7715
▁öffentlichen	-10.7718
▁slope	-10.7719
platz	-10.772
▁Case	-10.7721
▁1968	-10.7721
▁electric	-10.7726
▁errichtet	-10.7733
▁Anbieter	-10.7733
▁Dienst	-10.7737
lich	-10.774
▁49	-10.7741
▁Kurz	-10.7742
post	-10.7742
▁properly	-10.7747
▁artist	-10.7753
▁fixed	-10.7755
▁Digital	-10.7759
▁participants	-10.776
▁helping	-10.7762
▁frame	-10.7764
▁Samstag	-10.777
ville	-10.7771
▁Before	-10.7773
▁triangles	-10.7776
▁Ideen	-10.7777
ungen	-10.7778
▁explore	-10.7781
▁Mein	-10.7781
▁net	-10.7781
▁Glas	-10.7783
▁wichtigsten	-10.7783
▁1972	-10.7784
▁solid	-10.7785
▁mainly	-10.7786
▁Schul	-10.7793
▁aktuelle	-10.7797
▁initially	-10.7799
asy	-10.7799
▁Part	-10.7806
▁voll	-10.7809
▁Committee	-10.7814
▁sodass	-10.7816
raum	-10.7816
(3)	-10.7817
▁funktioniert	-10.782
▁sonst	-10.7825
▁Under	-10.7825
▁Inhalte	-10.7826
▁Schon	-10.7827
Veröffentlichung	-10.7831
▁diameter	-10.7835
▁Number	-10.7841
▁Monat	-10.7844
▁verfügt	-10.7848
▁stations	-10.785
▁Instead	-10.7856
▁vorhanden	-10.7857
▁saying	-10.786
All	-10.7861
▁Option	-10.7861
▁regarding	-10.7862
▁Drei	-10.7864
{1}{3}	-10.7868
▁stars	-10.787
▁cars	-10.7871
▁dead	-10.7872
build	-10.7876
▁mentioned	-10.7884
▁linked	-10.7884
▁database	-10.7884
▁leads	-10.7887
ce	-10.7888
▁experts	-10.789
▁§	-10.789
▁phone	-10.789
▁Take	-10.7893
▁visual	-10.7894
msg	-10.7897
▁relative	-10.7904
▁creation	-10.7904
▁depending	-10.7904
▁Punkt	-10.7905
▁subtract	-10.7905
▁fine	-10.7907
▁Learning	-10.791
▁genommen	-10.7914
▁urban	-10.7915
▁5:	-10.7916
▁beträgt	-10.7918
▁$|	-10.7918
Ref	-10.7929
▁Original	-10.793
▁2.0	-10.793
18	-10.793
▁decisions	-10.7932
▁Bob	-10.7934
ring	-10.7937
ul	-10.7939
▁vs	-10.794
▁gender	-10.7943
▁aspects	-10.7943
-3	-10.7946
▁Films	-10.7947
▁Russia	-10.7949
▁genug	-10.795
▁Pennsylvania	-10.7953
▁Gott	-10.7953
▁BC	-10.7966
equal	-10.7967
▁1966	-10.7968
▁processing	-10.7969
▁float	-10.797
And	-10.7972
il	-10.7974
▁Program	-10.7978
▁Southern	-10.7981
top	-10.7982
▁|-	-10.7983
▁aircraft	-10.7983
▁End	-10.799
show	-10.7991
▁(\	-10.7991
ation	-10.7993
▁Middle	-10.7995
▁Alt	-10.7996
▁Mac	-10.8008
Class	-10.8014
▁police	-10.8015
▁1983	-10.8017
11	-10.8017
▁stets	-10.8018
hof	-10.8019
▁reducing	-10.8021
▁extends	-10.8022
24	-10.8023
TV	-10.8034
▁gebracht	-10.8035
▁nämlich	-10.8038
▁False	-10.8041
oder	-10.8044
▁zahlreichen	-10.8045
▁DDR	-10.8046
▁falls	-10.8046
Group	-10.8054
▁vorbei	-10.8059
▁Simplify	-10.8059
▁55	-10.8061
▁pollution	-10.8061
▁scored	-10.8062
▁29.	-10.8063
▁Baby	-10.8063
▁disorders	-10.8063
▁gene	-10.8064
▁appearance	-10.8066
byte	-10.8076
▁agreed	-10.8078
▁joint	-10.8079
so	-10.8081
▁strategy	-10.8088
▁meat	-10.8088
▁relationships	-10.8088
▁Northern	-10.8089
▁king	-10.8093
▁Ost	-10.8095
▁vehicle	-10.8098
▁Gesundheit	-10.81
▁Position	-10.8105
▁Wild	-10.8106
band	-10.8109
▁Fort	-10.8117
▁isn	-10.8117
▁operating	-10.8117
▁Herren	-10.8118
▁Ländern	-10.8121
▁session	-10.8121
▁unten	-10.8134
side	-10.8135
▁Force	-10.8148
▁opening	-10.815
▁nuclear	-10.8154
▁stated	-10.8155
has	-10.8156
▁trial	-10.8161
▁Italy	-10.8161
:"	-10.8162
▁Zentrum	-10.8165
mode	-10.817
▁Telefon	-10.8176
▁Veranstaltung	-10.8181
Is	-10.8185
▁positions	-10.8188
▁legs	-10.8188
▁screen	-10.8189
▁durchgeführt	-10.819
▁komplett	-10.819
long	-10.8197
▁Details	-10.8201
▁taught	-10.8203
ieren	-10.8212
▁entstanden	-10.8215
▁homes	-10.8215
ry	-10.822
▁Such	-10.8225
▁9,	-10.823
▁undefined	-10.8235
▁darin	-10.8237
▁scheint	-10.8238
me	-10.8243
▁Centre	-10.8245
▁Pflanzen	-10.8245
react	-10.8247
CD	-10.8247
action	-10.8251
▁unknown	-10.8252
unternehmen	-10.8256
▁1979	-10.8257
").	-10.826
▁kept	-10.826
{4	-10.8269
▁equivalent	-10.8274
▁effectively	-10.8277
▁Medicine	-10.8279
▁Wohnung	-10.8283
▁langen	-10.8285
▁walk	-10.8288
auch	-10.8291
▁looks	-10.8293
Es	-10.8294
▁Francisco	-10.8296
▁Columbia	-10.8298
▁Einige	-10.8305
▁feeling	-10.8306
▁regional	-10.8308
▁intended	-10.8308
▁offered	-10.8309
▁jungen	-10.831
▁fair	-10.8315
▁Linie	-10.8318
'],	-10.8318
▁Christ	-10.8324
▁Gemeinden	-10.8325
▁begins	-10.8326
▁association	-10.833
▁Mensch	-10.833
▁Herausforderung	-10.8334
▁exists	-10.8334
▁Fahrzeug	-10.8335
▁generated	-10.8336
▁Latin	-10.8336
▁Beste	-10.8336
AS	-10.8337
▁lesson	-10.834
▁völlig	-10.834
▁schrieb	-10.8347
▁Commission	-10.8347
▁Zeiten	-10.8347
▁nächste	-10.8347
▁stream	-10.8348
▁slow	-10.8349
▁holds	-10.8351
▁industrial	-10.8351
▁Anti	-10.8352
▁albums	-10.8359
▁Only	-10.8361
▁1982	-10.8366
▁richtige	-10.8369
{1}{\	-10.837
▁Code	-10.837
dorf	-10.8371
▁hab	-10.8371
idx	-10.8372
AD	-10.8372
▁bekommt	-10.8373
▁residents	-10.8373
▁bought	-10.8373
[]	-10.8376
▁vegetables	-10.8376
▁bar	-10.8381
▁showing	-10.8381
▁forced	-10.8382
▁speak	-10.8384
▁perimeter	-10.8386
American	-10.8386
▁youth	-10.839
▁aware	-10.8391
schutz	-10.8391
▁empty	-10.8394
▁Back	-10.8401
iert	-10.8402
▁Italien	-10.8403
Area	-10.8403
▁allowing	-10.8404
▁risks	-10.8406
he	-10.8408
▁umfasst	-10.8418
▁Leistungen	-10.842
▁Good	-10.8423
▁dangerous	-10.8423
▁internet	-10.8424
▁Bildung	-10.8426
▁fallen	-10.8427
Auswahl	-10.8427
▁Aufgabe	-10.8429
▁Deshalb	-10.8432
▁1975	-10.8439
▁erkennen	-10.8444
▁1974	-10.8444
▁tasks	-10.845
▁Wirkung	-10.8452
▁Beratung	-10.8457
vec	-10.8459
▁$$\	-10.8462
▁Irish	-10.8462
▁voice	-10.8463
▁port	-10.8464
▁institutions	-10.8465
▁Hoch	-10.8466
▁latest	-10.8474
▁surrounding	-10.8478
▁1939	-10.848
▁otherwise	-10.848
▁faster	-10.848
▁1976	-10.8483
gruppe	-10.8484
▁reaction	-10.8489
▁illness	-10.8491
▁experienced	-10.8494
▁Na	-10.8498
▁Ava	-10.8498
▁powers	-10.8506
▁starb	-10.8506
▁weg	-10.8507
▁o	-10.8507
▁nahe	-10.8512
▁Motor	-10.8514
▁1978	-10.8517
▁median	-10.8521
▁hundreds	-10.8523
▁electrical	-10.8528
▁improved	-10.8533
▁Soviet	-10.8533
los	-10.8535
▁Chance	-10.8535
▁primarily	-10.8539
▁Meinung	-10.8541
▁drop	-10.8548
▁writers	-10.855
▁dating	-10.8554
▁Gewinn	-10.8554
(1	-10.8555
▁Fenster	-10.8562
▁proposed	-10.8564
▁despite	-10.8565
▁Anschluss	-10.8566
▁anderer	-10.8567
▁Marketing	-10.8567
▁channel	-10.8569
▁journal	-10.8569
By	-10.8571
▁Transport	-10.8572
▁Neue	-10.8572
▁Wein	-10.858
▁Boston	-10.8581
▁Hallo	-10.8583
▁errors	-10.8584
)$,	-10.8585
▁Will	-10.8587
▁Zusammenhang	-10.8598
>(	-10.8599
Server	-10.8601
▁enjoy	-10.8601
▁Schauspieler	-10.8601
▁Master	-10.8603
▁31.	-10.8605
▁Asian	-10.8608
Table	-10.8609
▁Santa	-10.8615
URL	-10.8616
▁Vom	-10.8616
▁url	-10.8619
▁Anmeldung	-10.862
▁efficient	-10.8624
▁Vorteile	-10.8626
▁hilft	-10.8627
▁Aufgrund	-10.8627
▁chain	-10.8631
▁Teams	-10.8635
▁Forschung	-10.8636
▁verloren	-10.8638
▁frequency	-10.8638
▁Herr	-10.8639
▁1969	-10.8642
spiel	-10.8642
▁farm	-10.8644
▁setzte	-10.8647
▁Revolution	-10.8649
▁violence	-10.8653
▁Veranstaltungen	-10.8657
common	-10.866
▁Bücher	-10.8661
▁wenigen	-10.8661
▁Real	-10.8661
▁transport	-10.8662
▁Doppel	-10.8666
▁click	-10.8666
▁focused	-10.8667
▁border	-10.8671
▁raw	-10.8674
bit	-10.8676
▁contribute	-10.8676
▁sphere	-10.8677
▁Ernst	-10.8678
▁Warum	-10.8686
▁discussion	-10.8687
▁Andreas	-10.8688
▁sustainable	-10.869
▁characteristics	-10.8696
store	-10.8699
▁battle	-10.8699
▁hearing	-10.8705
▁Nachrichten	-10.8708
▁Inhalt	-10.871
”,	-10.8711
▁Empire	-10.8721
▁Kirchen	-10.8724
▁filter	-10.8725
▁heard	-10.8725
▁(2)	-10.8727
way	-10.8734
▁Süd	-10.8734
▁topics	-10.8738
▁Feld	-10.8739
▁Dresden	-10.8742
▁Who	-10.8743
1)	-10.8744
▁Funktionen	-10.8745
▁fear	-10.8746
▁Wales	-10.8747
▁Noch	-10.8748
▁edition	-10.8754
▁policies	-10.8754
▁mittlerweile	-10.8757
technik	-10.8759
▁Major	-10.8759
▁angeboten	-10.8766
▁besitzt	-10.8768
"`	-10.8769
▁discuss	-10.877
▁specifically	-10.8772
▁couple	-10.8775
▁Bruder	-10.8775
▁hear	-10.8778
▁boolean	-10.8779
▁Order	-10.8781
▁expansion	-10.8781
▁jobs	-10.8782
▁früher	-10.8785
phi	-10.8787
▁Nutzer	-10.8799
▁10,	-10.88
▁inner	-10.88
▁extreme	-10.8803
▁Navy	-10.8804
▁radiation	-10.8808
▁Johnson	-10.8809
▁fresh	-10.8809
▁Sachsen	-10.881
▁manage	-10.8811
▁Edward	-10.8811
▁clearly	-10.8811
▁besondere	-10.8811
▁conservation	-10.8813
▁Damen	-10.8813
▁formation	-10.8814
▁Mo	-10.8814
▁infections	-10.8814
▁Hannover	-10.8815
▁Casinos	-10.8816
▁Sciences	-10.8817
▁(†	-10.882
▁persönlichen	-10.8821
▁1933	-10.8821
▁Kategorie	-10.8824
▁bag	-10.8825
▁lose	-10.8826
▁shall	-10.8826
▁assessment	-10.8828
▁Dem	-10.8833
▁bank	-10.8838
values	-10.8838
sub	-10.884
▁Webseite	-10.884
{1}	-10.8842
▁efficiency	-10.8845
▁Date	-10.8846
▁Control	-10.8847
▁density	-10.885
▁survey	-10.8856
▁chronic	-10.8858
▁className	-10.8859
▁farmers	-10.886
▁technical	-10.8861
▁exposed	-10.8862
▁Queen	-10.887
▁Up	-10.887
▁grid	-10.8872
▁Michigan	-10.8879
▁trägt	-10.888
▁ocean	-10.8881
▁aktuell	-10.8882
▁endlich	-10.8882
▁implies	-10.8882
▁geometric	-10.8886
▁slightly	-10.8889
java	-10.8901
head	-10.8901
▁nor	-10.8903
▁Director	-10.8908
▁37	-10.8909
▁empfehlen	-10.8914
▁sorgt	-10.8916
▁bread	-10.8917
▁Sieg	-10.8918
▁Strecke	-10.892
ine	-10.8924
▁Alles	-10.8925
▁download	-10.8925
▁Anlage	-10.8927
▁nine	-10.8934
▁Ball	-10.8938
▁arbeitet	-10.8939
▁Sam	-10.8941
▁facilities	-10.8943
">	-10.8943
▁shift	-10.8943
dev	-10.8945
▁Gründung	-10.8947
▁samples	-10.895
▁credit	-10.8951
▁Sicht	-10.8952
▁concerns	-10.8956
▁citizens	-10.8956
se	-10.8958
▁verfügbar	-10.8965
▁boys	-10.8967
▁Line	-10.8967
▁bird	-10.8968
▁populations	-10.897
▁fahren	-10.8976
module	-10.8976
▁hospital	-10.8978
ha	-10.8978
▁Zürich	-10.8979
▁atmosphere	-10.8987
▁occurred	-10.8996
▁Van	-10.8997
▁alumni	-10.8998
Box	-10.9
▁selection	-10.9009
▁argument	-10.9009
▁Fuß	-10.901
▁Sinne	-10.9016
▁bestimmt	-10.9021
▁Strom	-10.9021
img	-10.9025
▁Despite	-10.9032
▁Job	-10.9034
▁Begriff	-10.9036
▁beautiful	-10.9038
▁Antwort	-10.9041
▁keeping	-10.9045
▁exact	-10.9048
▁Länge	-10.9049
▁Mars	-10.9054
▁dagegen	-10.9061
▁folgte	-10.9062
▁concepts	-10.9062
▁Marine	-10.9066
▁1981	-10.9067
▁hätten	-10.9069
▁photo	-10.9071
▁Solve	-10.9071
ptr	-10.9072
▁linear	-10.9073
▁AND	-10.9073
▁ordered	-10.9076
approx	-10.9079
▁purchase	-10.9079
▁Bürgermeister	-10.9081
▁entscheiden	-10.9081
▁könnt	-10.9083
▁anxiety	-10.9087
▁['	-10.9088
▁Daher	-10.9089
▁platform	-10.9093
▁1977	-10.9094
gesellschaft	-10.9095
▁seed	-10.9097
▁debut	-10.9098
print	-10.9099
Color	-10.91
▁sexual	-10.91
▁Arzt	-10.9102
▁daß	-10.9107
▁Leiter	-10.911
Token	-10.9111
▁Engineering	-10.9112
▁western	-10.9113
▁Family	-10.9114
▁Rat	-10.9115
▁Meine	-10.9116
▁fr	-10.9116
▁quarter	-10.9118
▁visible	-10.9122
▁settings	-10.9125
▁Georgia	-10.9125
▁Quelle	-10.913
▁emergency	-10.9131
call	-10.9135
▁detailed	-10.9138
▁1944	-10.9139
▁Network	-10.9139
▁Eis	-10.9143
▁fällt	-10.9145
▁advice	-10.9146
▁chemicals	-10.9149
ei	-10.9151
▁coach	-10.9155
▁Tier	-10.9155
▁Tiere	-10.9158
▁sort	-10.9161
[1]	-10.9162
▁Falls	-10.9164
▁Tages	-10.9164
▁tips	-10.9164
position	-10.9168
▁Albert	-10.9169
▁Leitung	-10.9171
batch	-10.9173
ate	-10.9183
▁corresponding	-10.9185
▁ran	-10.9187
▁torch	-10.9189
▁percentage	-10.9189
▁Android	-10.919
▁advantage	-10.9191
▁faces	-10.9195
▁entwickeln	-10.9195
▁extended	-10.9198
Stand	-10.9199
▁Federal	-10.9199
rfloor	-10.9203
auto	-10.9205
▁architecture	-10.9205
markt	-10.9206
▁richtigen	-10.9207
▁Fach	-10.9208
▁purposes	-10.9208
▁houses	-10.9209
▁driving	-10.9211
ham	-10.9212
▁representation	-10.9212
▁Zug	-10.9214
▁rewrite	-10.9215
30	-10.9215
lfloor	-10.9216
von	-10.9219
▁38	-10.9219
▁1973	-10.9222
▁investment	-10.9223
▁attacks	-10.9223
▁100%	-10.9225
▁1971	-10.9226
▁Have	-10.9226
▁Netz	-10.9226
▁portion	-10.9228
▁Ohio	-10.9229
rate	-10.9231
lin	-10.9231
▁Rights	-10.9233
schule	-10.9238
▁französischen	-10.9239
▁4)	-10.924
▁COVID	-10.9245
▁Freunde	-10.9249
▁Deine	-10.9249
▁owner	-10.9249
▁Karten	-10.9252
▁1964	-10.9253
DIR	-10.9253
▁manager	-10.9255
▁drinking	-10.9262
▁bestehen	-10.9263
▁Series	-10.9264
▁conflict	-10.9264
▁freedom	-10.9267
▁connect	-10.9267
ni	-10.9271
▁leg	-10.9274
▁mag	-10.9274
▁theorem	-10.9277
ige	-10.9279
▁university	-10.928
▁Maßnahmen	-10.9281
▁selten	-10.9282
ina	-10.9284
▁blocks	-10.9285
▁Wolfgang	-10.9286
)(	-10.9287
▁league	-10.9289
▁principles	-10.9292
dots	-10.9296
▁county	-10.9301
▁Every	-10.9303
▁Urlaub	-10.9304
▁reduction	-10.9308
▁rein	-10.9308
▁traffic	-10.9309
▁Review	-10.931
Read	-10.9313
ya	-10.9314
▁Any	-10.9317
▁Spain	-10.9318
span	-10.9319
▁sprechen	-10.9329
txt	-10.9331
▁800	-10.9332
▁dennoch	-10.9339
▁Li	-10.934
wood	-10.9345
▁watch	-10.9347
▁UN	-10.9348
▁intersection	-10.9348
²	-10.9349
▁\[\	-10.9351
▁Küche	-10.9352
▁fruits	-10.9352
▁1961	-10.9356
▁coffee	-10.9356
▁senior	-10.9358
▁schöne	-10.9365
▁Heimat	-10.9369
Action	-10.937
▁encourage	-10.937
▁elif	-10.9374
▁switch	-10.9376
▁query	-10.9378
web	-10.9378
▁Sand	-10.938
▁Little	-10.9382
▁master	-10.9382
total	-10.9388
▁shelf	-10.939
▁gelang	-10.9391
▁awareness	-10.9395
▁Rang	-10.9395
▁Oxford	-10.9398
▁Jones	-10.9401
▁Notice	-10.9402
▁parser	-10.9403
▁programming	-10.9403
▁vaccine	-10.9405
▁claim	-10.9408
▁Bahn	-10.9409
▁Wissen	-10.941
uk	-10.9414
▁awarded	-10.9417
▁painting	-10.9419
▁Prozess	-10.9419
▁breast	-10.9421
▁zumindest	-10.9422
▁1946	-10.9423
▁views	-10.9423
▁versucht	-10.9424
▁inzwischen	-10.9426
▁transfer	-10.9427
▁launched	-10.9432
func	-10.9432
▁los	-10.9432
language	-10.9433
▁coal	-10.9434
▁Verwaltung	-10.9434
▁matches	-10.9435
▁Infos	-10.9438
▁diagnosis	-10.9442
▁ermöglichen	-10.9443
▁Sicherheits	-10.9444
^2+	-10.9445
▁wahrscheinlich	-10.9446
▁external	-10.9448
werk	-10.9448
▁liquid	-10.9449
▁Ex	-10.9457
▁namespace	-10.946
ids	-10.9467
▁concern	-10.9468
▁camera	-10.9469
▁typical	-10.947
▁"$	-10.947
▁Reich	-10.9472
▁vital	-10.9476
▁1963	-10.948
▁Gut	-10.9481
▁numerator	-10.9483
▁relativ	-10.9485
▁52	-10.9495
▁Finale	-10.9497
dt	-10.9499
▁depth	-10.9501
▁Verfahren	-10.9502
ip	-10.9507
').	-10.9508
mal	-10.951
▁bestimmten	-10.9512
▁sell	-10.9514
▁Arbeits	-10.9518
▁Stellen	-10.9518
▁vehicles	-10.952
▁SPD	-10.9522
▁nearby	-10.9523
Add	-10.9524
▁Fehler	-10.9526
▁Montag	-10.9528
▁tried	-10.9532
▁Laut	-10.9533
▁Des	-10.9533
▁massive	-10.9533
▁länger	-10.9533
{6}	-10.9534
▁bilden	-10.9537
ierung	-10.9538
graph	-10.9542
▁möglichst	-10.9543
▁pool	-10.9546
ray	-10.9555
ED	-10.9558
▁erwartet	-10.956
','	-10.956
▁sounds	-10.9564
▁department	-10.9566
▁category	-10.9569
ad	-10.9569
▁brown	-10.957
▁folgt	-10.9571
▁Jazz	-10.9571
▁variables	-10.9572
▁Special	-10.9573
▁walls	-10.9574
▁steel	-10.9575
bytes	-10.9577
▁trotzdem	-10.9578
▁straight	-10.9579
▁mussten	-10.9579
meisterschaften	-10.9582
▁PS	-10.9583
▁Rad	-10.9585
▁bildet	-10.9589
▁gern	-10.9589
▁nearest	-10.9591
▁HIV	-10.9597
▁calls	-10.96
▁drink	-10.96
element	-10.9602
Date	-10.9603
▁Natural	-10.9605
▁prepare	-10.9606
▁×	-10.9606
▁Nations	-10.9611
▁optimal	-10.9612
▁Zahlen	-10.9613
▁cool	-10.9614
▁largely	-10.9616
▁procedure	-10.9617
▁sales	-10.962
▁Forum	-10.9622
arg	-10.9623
▁jederzeit	-10.9625
▁1962	-10.9625
▁Songs	-10.9626
▁Rhein	-10.9626
^2)	-10.9627
▁nutrients	-10.9627
Page	-10.9627
▁1967	-10.9628
▁stammt	-10.9629
▁assume	-10.9635
▁Blog	-10.9637
▁(4	-10.9637
▁Kloster	-10.9639
▁brauchen	-10.9642
▁Flughafen	-10.9648
▁Freude	-10.965
▁returns	-10.9652
▁oral	-10.9656
fn	-10.9658
▁stored	-10.9661
▁Town	-10.9663
▁Kurs	-10.9664
▁Box	-10.9665
▁indicate	-10.9666
的	-10.9666
################	-10.9671
▁java	-10.9673
▁Nature	-10.9674
ln	-10.9675
▁Macht	-10.968
▁verlassen	-10.9683
▁define	-10.9687
▁User	-10.9687
▁ehemalige	-10.9691
▁jemand	-10.9692
▁11,	-10.9696
▁läuft	-10.9697
▁schreiben	-10.9698
▁rural	-10.9699
▁Point	-10.9702
▁Bus	-10.9705
▁entsprechend	-10.9707
▁refers	-10.9709
stream	-10.9709
▁Rom	-10.9709
▁Twitter	-10.9712
Update	-10.9713
▁gebaut	-10.9715
▁Zugang	-10.9716
▁meant	-10.9717
▁managed	-10.9718
▁Di	-10.972
▁Pre	-10.972
▁ziehen	-10.9724
▁join	-10.9726
▁Länder	-10.9727
▁seat	-10.9728
▁Rest	-10.9732
▁ends	-10.9734
▁unbedingt	-10.9736
▁habitat	-10.9736
management	-10.9737
▁sister	-10.9738
▁erwähnt	-10.9738
▁compute	-10.9739
▁offen	-10.9742
▁pick	-10.9743
▁heads	-10.9745
sql	-10.975
▁Müller	-10.975
▁entstehen	-10.9752
▁achieved	-10.9753
▁gelten	-10.9755
▁-3	-10.9756
▁manner	-10.9756
▁motor	-10.9761
▁Regional	-10.9761
▁felt	-10.9765
▁unterwegs	-10.9765
ant	-10.9769
▁Flug	-10.9771
▁1938	-10.9773
Content	-10.9776
▁aid	-10.978
▁perfekt	-10.9783
▁reflect	-10.9791
▁Per	-10.9791
▁bridge	-10.9791
Mode	-10.9793
Source	-10.9793
▁Düsseldorf	-10.9796
▁rechts	-10.9797
▁serving	-10.9798
rat	-10.9799
▁Tel	-10.98
15	-10.9803
preis	-10.9806
▁manchmal	-10.9806
▁Fußballspieler	-10.9813
▁Hospital	-10.9814
▁Aufbau	-10.9816
▁particles	-10.9816
▁Kommunikation	-10.982
▁tea	-10.9822
▁verstehen	-10.9827
▁religion	-10.9827
▁explains	-10.9828
▁template	-10.9828
▁bestimmte	-10.9829
▁genießen	-10.9831
▁depends	-10.9832
ier	-10.9833
▁situations	-10.9833
▁flat	-10.9836
▁centuries	-10.9836
▁Olympics	-10.9838
meisterschaft	-10.9839
▁press	-10.984
▁Brand	-10.9841
▁practical	-10.9843
▁muscles	-10.9844
▁Euch	-10.9847
▁1.5	-10.9849
▁Risiko	-10.9852
▁dedicated	-10.9852
▁Scotland	-10.9861
▁ausgezeichnet	-10.9866
▁Standort	-10.9867
▁lebt	-10.9868
▁recognize	-10.987
▁selber	-10.9872
ty	-10.9872
▁1947	-10.9874
▁Insgesamt	-10.9875
▁adjacent	-10.9876
▁contrast	-10.988
▁täglich	-10.9883
▁Gedanken	-10.9886
▁Scott	-10.9892
▁flag	-10.9892
0,	-10.9894
▁ended	-10.9895
▁prepared	-10.9896
▁besuchte	-10.9899
▁europäischen	-10.99
▁Massachusetts	-10.9901
▁recognized	-10.9909
▁salt	-10.991
▁deinen	-10.9914
▁kleiner	-10.9916
▁Ukraine	-10.9918
▁regularly	-10.9918
▁Anforderungen	-10.9919
▁Simon	-10.9921
ein	-10.9921
▁IP	-10.9923
▁ages	-10.9923
▁lessons	-10.9926
▁Create	-10.9926
▁experiment	-10.9928
▁Guide	-10.9932
▁obwohl	-10.9933
▁Anschließend	-10.9939
▁earned	-10.994
▁seek	-10.9945
▁accurate	-10.9946
▁army	-10.995
range	-10.995
▁tells	-10.996
▁axis	-10.9961
est	-10.9962
▁replace	-10.9962
▁introduction	-10.9964
ich	-10.9965
▁vollständig	-10.9967
▁fi	-10.9967
▁soft	-10.9968
▁treatments	-10.9968
▁helpful	-10.9968
▁politischen	-10.9969
▁Illinois	-10.9971
▁affects	-10.9973
unterschiedliche	-10.9974
▁Bundesliga	-10.9978
▁exchange	-10.9978
▁Gegen	-10.9979
▁agricultural	-10.9982
▁Einfluss	-10.9984
▁Teilnahme	-10.9985
▁1965	-10.9988
mer	-10.9992
▁Gesundheits	-10.9992
▁Chris	-10.9993
▁excellent	-10.9995
▁Model	-10.9996
▁Ko	-10.9997
▁kinds	-10.9998
▁crucial	-11.0004
▁geführt	-11.0007
▁Class	-11.0011
▁Besonders	-11.0013
▁Bewegung	-11.0013
▁Wiener	-11.0014
▁1958	-11.0015
ally	-11.0018
▁Ma	-11.0021
▁potentially	-11.0026
more	-11.0026
▁Chr	-11.0028
▁successfully	-11.003
▁shot	-11.003
▁Environmental	-11.0031
keys	-11.0032
▁apples	-11.0037
▁benötigt	-11.004
▁fewer	-11.0046
▁household	-11.0047
di	-11.005
▁flight	-11.0052
▁Language	-11.0054
▁Bischof	-11.0055
▁Institut	-11.0058
▁Auftrag	-11.0059
▁PDF	-11.006
▁sogenannten	-11.0061
▁evaluate	-11.0062
▁scene	-11.0065
▁39	-11.0065
▁Notes	-11.0065
▁parameters	-11.0069
▁produces	-11.0069
▁mixed	-11.0072
▁semi	-11.0072
▁beachten	-11.0077
▁Systems	-11.0077
▁Conference	-11.0079
▁Vol	-11.0082
▁basketball	-11.0082
send	-11.0084
▁secondary	-11.0097
▁businesses	-11.0098
Link	-11.0099
▁motion	-11.0103
▁peace	-11.0105
▁0.5	-11.0108
▁Kritik	-11.0116
▁silver	-11.0116
models	-11.0116
Module	-11.0118
testing	-11.0119
▁Videos	-11.012
▁Angst	-11.0121
▁younger	-11.0122
▁prices	-11.0123
▁Wege	-11.0129
▁documents	-11.0133
▁refer	-11.0134
▁horse	-11.0138
▁Ehe	-11.0139
▁Image	-11.014
▁tested	-11.0142
▁Gegensatz	-11.0143
▁neun	-11.0145
▁figures	-11.0147
▁attended	-11.0148
3.	-11.0151
▁geschrieben	-11.0152
You	-11.0153
▁Prof	-11.0157
▁240	-11.0157
▁grown	-11.0157
▁1957	-11.0158
▁notwendig	-11.0161
▁Fällen	-11.0161
▁wählen	-11.0162
ng	-11.0163
▁gesagt	-11.0163
▁eliminate	-11.0165
▁Gesamt	-11.017
▁Natürlich	-11.017
▁Führung	-11.017
▁Anspruch	-11.0171
lastname	-11.0171
▁spot	-11.0181
▁>=	-11.0181
▁Common	-11.0183
▁Bereichen	-11.0185
▁coast	-11.0186
▁chart	-11.0187
Point	-11.0187
▁passing	-11.0188
▁Projekte	-11.0189
▁stock	-11.0193
▁1;	-11.0195
▁remote	-11.0196
▁divisor	-11.0196
▁erhält	-11.0197
wald	-11.0199
▁Sports	-11.0199
▁//!	-11.02
▁Kamera	-11.02
Handler	-11.0201
▁suggested	-11.0201
▁pp	-11.0202
▁specified	-11.0202
▁Lehrer	-11.0202
▁cent	-11.0203
Props	-11.0206
▁expensive	-11.0217
▁Bahnhof	-11.0219
▁paint	-11.022
Team	-11.0221
▁Meer	-11.0225
welt	-11.0225
▁crate	-11.0229
▁Hermann	-11.0229
▁json	-11.0231
▁verbessern	-11.0232
▁Geräte	-11.0234
▁Ortsteil	-11.0236
DB	-11.0239
▁Zeitung	-11.0242
Filter	-11.0252
aus	-11.0252
▁centre	-11.0253
lang	-11.0257
▁Erde	-11.0258
▁Sound	-11.0267
▁fifth	-11.0267
▁medium	-11.0267
fmt	-11.0268
▁Gefühl	-11.0271
Vereinigten	-11.0273
▁Ausstellung	-11.0275
▁partner	-11.0279
▁Tätigkeit	-11.028
▁passes	-11.0283
▁Security	-11.0285
▁Following	-11.0285
▁Port	-11.0286
▁machines	-11.0286
▁Dutch	-11.0289
Line	-11.029
scope	-11.0293
▁passt	-11.0294
▁gespielt	-11.0296
▁enable	-11.0297
▁Polen	-11.0298
▁Native	-11.0299
▁Ihres	-11.0302
▁ursprünglich	-11.0303
df	-11.0303
▁rows	-11.0304
▁weiterer	-11.0305
▁threat	-11.0306
▁parties	-11.0306
▁vorher	-11.0308
▁erforderlich	-11.0314
▁Freund	-11.0315
▁yield	-11.0315
▁implementation	-11.0316
▁branch	-11.0316
▁Source	-11.0316
▁Zeichen	-11.0316
▁Links	-11.0323
****************	-11.0328
++)	-11.0328
▁AD	-11.033
▁symbol	-11.0332
▁poverty	-11.0332
Block	-11.0336
▁Jews	-11.0336
schen	-11.0338
▁Jersey	-11.0339
▁entered	-11.034
▁worldwide	-11.0342
▁periods	-11.0342
rust	-11.0346
▁permanent	-11.0352
▁museum	-11.0352
▁customers	-11.0356
▁Tal	-11.0358
▁$8	-11.0358
▁split	-11.036
▁goods	-11.036
▁officials	-11.0363
▁Eastern	-11.0365
cast	-11.0368
▁Bremen	-11.037
space	-11.037
▁vote	-11.0373
▁gekommen	-11.0374
▁derived	-11.0375
▁automatisch	-11.0376
▁marriage	-11.038
▁bill	-11.0385
▁bestand	-11.0387
Query	-11.039
▁featured	-11.0392
▁Schwarz	-11.0392
mock	-11.0394
▁veröffentlichte	-11.0394
▁ausgestattet	-11.0401
since	-11.0405
ki	-11.0407
sen	-11.0409
▁1942	-11.0409
▁producing	-11.0411
Label	-11.0414
▁liver	-11.0417
▁Those	-11.0417
▁fluid	-11.0417
▁spricht	-11.0418
▁interior	-11.0421
▁Gast	-11.0423
▁covers	-11.0425
▁kill	-11.0425
▁Object	-11.0426
▁dot	-11.0427
remove	-11.0428
local	-11.043
▁Vereins	-11.0431
▁verkauft	-11.0433
▁curriculum	-11.0435
▁Städte	-11.0436
▁marine	-11.0439
▁multiples	-11.0439
Log	-11.0439
close	-11.0441
▁Experten	-11.0443
▁Fluss	-11.0443
▁blog	-11.0443
▁Adam	-11.0444
▁crops	-11.0444
▁constructed	-11.0445
▁subjects	-11.0446
▁selben	-11.0451
▁electronic	-11.0451
▁locations	-11.0452
▁purchased	-11.0453
device	-11.0455
seite	-11.046
▁Büro	-11.0463
▁courses	-11.0463
▁Olympic	-11.0466
-1}	-11.0469
address	-11.0469
▁creative	-11.0469
▁touch	-11.0475
▁Career	-11.048
▁Moon	-11.0481
▁guitar	-11.0483
▁Marke	-11.0489
▁entweder	-11.0492
▁analyze	-11.0496
▁detail	-11.0497
ck	-11.05
▁journey	-11.0503
▁crisis	-11.0503
▁Pan	-11.0507
▁innovative	-11.0508
▁cone	-11.0512
▁wirkt	-11.0512
▁movie	-11.0514
Create	-11.0517
▁describes	-11.052
▁decrease	-11.0521
▁Light	-11.0521
)\	-11.0523
▁husband	-11.0524
Command	-11.0525
▁Later	-11.0528
static	-11.0529
▁firm	-11.053
▁versuchen	-11.0533
▁funding	-11.0533
▁Grundlage	-11.0535
▁infrastructure	-11.0536
▁Eigenschaften	-11.0537
ii	-11.0539
property	-11.054
▁1959	-11.0541
▁Out	-11.0542
▁Chor	-11.0546
▁Kaffee	-11.0549
▁stages	-11.0551
▁musical	-11.0553
▁Ha	-11.0554
▁sand	-11.0557
▁darum	-11.0559
▁erscheint	-11.0565
star	-11.0566
Total	-11.0566
▁minor	-11.0567
▁bus	-11.0569
cpp	-11.0569
▁$10	-11.0573
▁theme	-11.0574
▁Car	-11.0575
▁monitoring	-11.0575
▁entwickelte	-11.0575
▁erhältlich	-11.0578
her	-11.0578
▁verantwortlich	-11.0582
order	-11.0584
▁Firmen	-11.0585
50	-11.0585
▁arrangements	-11.0587
▁Battle	-11.0588
▁Well	-11.0588
▁Action	-11.059
▁Schulen	-11.0595
▁Bible	-11.0596
▁reader	-11.0597
▁1943	-11.0602
recht	-11.0608
▁SC	-11.0608
================	-11.0611
▁Korea	-11.0613
▁AM	-11.0616
▁closely	-11.0617
▁Dauer	-11.0617
▁Colorado	-11.0618
▁findest	-11.0618
we	-11.0619
▁labor	-11.062
▁chief	-11.0621
▁Server	-11.0622
▁controlled	-11.0626
▁tf	-11.0626
Tag	-11.0626
ach	-11.0627
▁housing	-11.0628
▁consequences	-11.0631
▁perspective	-11.0632
▁1948	-11.0632
▁Mount	-11.0632
▁establishments	-11.0634
▁valuable	-11.0636
▁females	-11.0637
▁Grad	-11.0638
▁Hotels	-11.0638
▁responsibility	-11.0639
▁claims	-11.0639
▁winning	-11.0641
▁params	-11.0645
▁Opfer	-11.0649
search	-11.065
known	-11.0652
▁soldiers	-11.0653
▁Age	-11.0654
▁creates	-11.0658
▁Type	-11.0659
team	-11.0659
cc	-11.0663
▁measured	-11.0663
▁Erfolge	-11.0665
▁durchaus	-11.067
▁Halle	-11.0676
▁divisors	-11.0677
ff	-11.0678
argument	-11.0679
▁increasingly	-11.068
▁revealed	-11.0681
▁44	-11.0682
fest	-11.0683
▁berichtet	-11.0683
▁install	-11.0686
▁Hochschule	-11.0686
▁batch	-11.069
▁org	-11.069
▁tooth	-11.0691
▁Beiträge	-11.0693
▁coins	-11.0695
▁Lang	-11.0696
{7}	-11.0696
foo	-11.0701
▁dank	-11.0702
▁suffering	-11.0703
▁manufacturing	-11.0704
▁genes	-11.0704
entwicklung	-11.0704
▁Schriftsteller	-11.0704
▁<=	-11.0705
▁Non	-11.0708
▁‚	-11.0711
▁Creek	-11.0718
shell	-11.0721
▁principle	-11.0721
▁Vorteil	-11.0723
▁leadership	-11.0725
Form	-11.0726
▁answers	-11.0726
▁Fire	-11.0728
?:	-11.0729
verständlich	-11.073
▁Silber	-11.0731
▁Additionally	-11.0732
pt	-11.0733
▁mod	-11.0734
items	-11.0734
▁Josef	-11.0735
▁impacts	-11.0739
▁limitations	-11.0739
▁Shop	-11.0739
random	-11.0739
▁singles	-11.0742
▁proteins	-11.0742
▁Obwohl	-11.075
▁56	-11.0751
▁Bezug	-11.0756
▁54	-11.0759
▁1952	-11.076
▁Wall	-11.0762
US	-11.0763
▁studying	-11.0763
▁explained	-11.0766
replace	-11.0768
▁5$	-11.0768
▁ziemlich	-11.0768
▁Story	-11.0769
any	-11.077
▁dient	-11.0771
▁entlang	-11.0772
ized	-11.0772
▁2010,	-11.0775
▁wait	-11.0775
▁Versand	-11.0778
▁extent	-11.0781
▁pet	-11.0785
▁Bezeichnung	-11.0786
▁12,	-11.0788
▁happened	-11.0791
▁benötigen	-11.0797
▁episode	-11.0799
▁Head	-11.0799
▁Milliarden	-11.0802
cfg	-11.0802
ous	-11.0805
▁Moment	-11.0808
▁Umsetzung	-11.0809
▁Russland	-11.081
▁1956	-11.0812
▁Where	-11.0812
▁discovery	-11.0812
▁Bedingungen	-11.0816
▁authority	-11.0816
▁battery	-11.0817
▁Konzept	-11.0818
▁kommenden	-11.082
command	-11.0821
▁Hot	-11.0822
▁arrived	-11.0824
▁Sache	-11.0825
material	-11.0827
▁micro	-11.0828
▁pretty	-11.0829
▁zählt	-11.0829
▁Lösungen	-11.0833
▁landscape	-11.0833
▁cylinder	-11.0835
Of	-11.0835
▁Sub	-11.0836
▁truth	-11.0837
igen	-11.0838
▁Among	-11.084
▁recovery	-11.084
▁existence	-11.0842
called	-11.0845
▁pregnancy	-11.0845
▁Joe	-11.0845
▁biological	-11.0846
$",	-11.0846
}"	-11.0848
▁1936	-11.0849
▁networks	-11.0851
▁gezeigt	-11.0851
▁Work	-11.0852
▁Williams	-11.0857
▁2023	-11.0857
debug	-11.0859
▁license	-11.086
▁facts	-11.086
▁1900	-11.0863
▁Rennen	-11.0865
▁Cambridge	-11.0866
▁looked	-11.0868
▁ANY	-11.0877
▁erleben	-11.088
else	-11.088
▁extensive	-11.088
▁fundamental	-11.0883
▁solchen	-11.0883
▁turns	-11.0886
▁Wochenende	-11.0886
▁customer	-11.0887
▁siehe	-11.0888
▁domestic	-11.0889
▁Militär	-11.0891
▁hingegen	-11.0892
▁Blut	-11.0896
▁Studio	-11.0897
▁Tür	-11.0897
▁certainly	-11.0901
vector	-11.0901
▁Steuer	-11.0902
Url	-11.0905
mark	-11.0905
raw	-11.0905
▁statistics	-11.0907
▁Kombination	-11.0909
ro	-11.0913
▁Learn	-11.0914
▁fanden	-11.0914
▁Nachfolger	-11.0916
ri	-11.0917
save	-11.0918
cycle	-11.0921
▁historic	-11.0921
▁ships	-11.0921
▁Zuge	-11.0921
▁normally	-11.0924
▁frühen	-11.0924
::{	-11.0925
Universität	-11.0927
▁evolution	-11.0929
▁firstname	-11.0929
buffer	-11.0929
▁Einen	-11.0929
▁wear	-11.0933
▁compare	-11.0935
▁parabola	-11.0935
▁brachte	-11.0937
ende	-11.0939
-8	-11.0939
▁sentence	-11.0939
});	-11.094
Start	-11.0943
▁unseres	-11.0943
▁composed	-11.0948
▁1941	-11.095
▁suitable	-11.0956
task	-11.0957
▁Staffel	-11.0957
▁Through	-11.0958
▁broken	-11.0961
▁Iran	-11.0961
▁owned	-11.0961
buch	-11.0962
▁Studie	-11.0965
▁hexagon	-11.0965
▁1955	-11.0967
_4	-11.0967
▁Strand	-11.0968
▁###	-11.0969
over	-11.097
▁foundation	-11.097
▁größere	-11.097
▁Field	-11.0972
▁arguments	-11.0977
▁relation	-11.098
▁Graf	-11.0983
▁stem	-11.0983
▁Lager	-11.0984
into	-11.0985
▁profit	-11.0987
▁vertical	-11.099
▁Schiff	-11.0991
▁Books	-11.0992
▁$6	-11.0993
▁Republik	-11.0994
▁eröffnet	-11.0994
▁Further	-11.0996
hash	-11.0997
Re	-11.0998
▁rain	-11.0999
▁reicht	-11.1
▁Grenze	-11.1
bahn	-11.1002
▁edges	-11.1003
▁abuse	-11.1004
▁medications	-11.1005
▁Feuer	-11.1005
▁Ton	-11.1008
▁2011,	-11.101
▁establish	-11.1011
frame	-11.1011
▁Assembly	-11.1012
▁involving	-11.1013
▁ABC	-11.1013
▁chapter	-11.1016
tree	-11.1016
▁Forest	-11.1018
▁households	-11.1018
▁secure	-11.1019
▁videos	-11.1019
▁eastern	-11.1019
▁Jeder	-11.1021
▁quick	-11.1022
▁Modern	-11.1022
das	-11.1028
▁Alltag	-11.1029
，	-11.1029
▁pictures	-11.1035
▁Ocean	-11.1043
▁expand	-11.1044
▁Besitz	-11.1044
▁audience	-11.1045
▁vary	-11.1046
▁Mike	-11.1052
▁besonderen	-11.1053
ABC	-11.1055
▁2012,	-11.1056
▁Dach	-11.1056
host	-11.1057
▁hergestellt	-11.1057
Buffer	-11.1061
▁kostenlose	-11.1064
▁correctly	-11.1065
▁arrange	-11.1066
▁Yet	-11.1067
parent	-11.1067
▁assigned	-11.1067
world	-11.1067
button	-11.1067
40	-11.107
col	-11.1071
▁Morgen	-11.1079
▁cats	-11.1083
▁inspired	-11.1089
▁Lauf	-11.109
▁union	-11.1091
▁adopted	-11.1091
?”	-11.1093
▁iPhone	-11.1097
▁gratis	-11.1098
▁agriculture	-11.1099
▁(5	-11.11
▁happy	-11.1101
▁Ruhe	-11.1103
▁possibly	-11.1104
▁grew	-11.1107
▁Vitamin	-11.1109
sort	-11.1112
▁tiny	-11.1116
▁moves	-11.1119
▁indeed	-11.112
▁Ersten	-11.1121
▁Plus	-11.1123
assertEqual	-11.1132
▁nations	-11.1132
▁wave	-11.1132
clone	-11.1134
▁Event	-11.1134
▁intelligence	-11.1134
▁decide	-11.1139
▁Elizabeth	-11.114
▁Lebensmittel	-11.1141
▁flu	-11.1141
▁injuries	-11.1145
▁Bo	-11.1148
▁Gerät	-11.115
▁Handel	-11.1152
▁kurze	-11.1153
Stream	-11.1153
▁Planung	-11.1155
char	-11.116
▁comment	-11.1161
▁Page	-11.1162
▁biggest	-11.1162
▁Sonne	-11.1164
{5	-11.1166
▁schönen	-11.1168
▁Verkehrs	-11.1168
▁Places	-11.1169
▁dental	-11.1169
▁Restaurant	-11.117
End	-11.1173
▁modernen	-11.1173
▁Rose	-11.1175
▁Browser	-11.1175
▁entirely	-11.1177
ischer	-11.1177
▁papers	-11.1182
▁Tisch	-11.1183
▁installed	-11.1184
match	-11.1188
{0}	-11.1188
▁Generation	-11.119
▁editor	-11.119
▁Support	-11.1192
▁politische	-11.1199
▁bones	-11.1202
▁bed	-11.1203
▁Edition	-11.1205
▁Heart	-11.1207
.__	-11.1208
▁Verkehr	-11.121
▁Anne	-11.1212
Format	-11.1212
▁2013,	-11.1213
▁composition	-11.1214
▁Marie	-11.1217
description	-11.1217
▁recommend	-11.1221
▁entschieden	-11.1222
delete	-11.1225
bad	-11.1225
▁Mini	-11.1226
▁wiederum	-11.1226
▁render	-11.1227
▁Apache	-11.1232
▁absolvierte	-11.1237
▁favorite	-11.124
offset	-11.1242
▁Administration	-11.1244
empty	-11.1244
▁midpoint	-11.1246
▁lieber	-11.1246
▁6:	-11.1247
▁accepted	-11.1247
▁usage	-11.1256
▁Metall	-11.1257
▁internationale	-11.1257
▁Railway	-11.1259
▁Wolf	-11.1262
vor	-11.1263
▁Dadurch	-11.1263
▁persönlich	-11.1263
▁tournament	-11.1265
▁gesetzt	-11.1266
▁ähnlich	-11.1269
▁talking	-11.1271
down	-11.1277
▁finde	-11.1277
▁Place	-11.1278
▁expressions	-11.1278
▁tolle	-11.128
wissenschaften	-11.1281
▁zuerst	-11.1282
▁destroyed	-11.1284
▁rapidly	-11.1291
▁Klima	-11.1292
▁Armee	-11.1294
Store	-11.1295
req	-11.1295
▁decade	-11.13
▁Christmas	-11.13
omega	-11.1301
_0	-11.1304
▁closer	-11.1304
▁vermutlich	-11.1306
▁sections	-11.1306
▁Stefan	-11.1307
▁plot	-11.1308
▁Sehr	-11.1308
▁Umgang	-11.1312
▁prove	-11.1315
▁op	-11.1315
▁computers	-11.1316
▁Victoria	-11.1318
▁info	-11.132
▁medication	-11.1321
▁Sch	-11.1323
▁Rot	-11.1327
▁indicates	-11.1328
▁acts	-11.1329
▁Click	-11.1329
▁Front	-11.1329
▁latter	-11.1333
▁agreement	-11.1337
▁calculated	-11.1339
▁beschäftigt	-11.1341
▁Sinn	-11.1341
▁cup	-11.1343
▁1949	-11.1346
▁budget	-11.1346
▁Einführung	-11.1346
▁Stiftung	-11.1346
Output	-11.1353
▁vertreten	-11.1354
▁arithmetic	-11.1354
ba	-11.1358
▁Vertreter	-11.1361
rich	-11.1361
▁hundred	-11.1364
▁finish	-11.1365
▁tradition	-11.1365
dim	-11.1369
▁Auszeichnungen	-11.1369
▁entsprechenden	-11.1371
One	-11.1374
▁organized	-11.1374
▁arms	-11.1374
▁Hund	-11.1377
files	-11.1378
▁Dafür	-11.1378
▁Donnerstag	-11.1379
kwargs	-11.138
▁era	-11.1381
ization	-11.1384
▁1951	-11.1384
2-	-11.1384
▁miteinander	-11.1385
▁messages	-11.1392
project	-11.1393
▁Marken	-11.1393
▁Jackson	-11.1394
▁!==	-11.1396
stand	-11.1397
keit	-11.1406
▁mix	-11.1408
ji	-11.1409
▁Gewicht	-11.141
holz	-11.1412
▁magazine	-11.1416
des	-11.1418
▁seasons	-11.142
▁Hunde	-11.142
▁accounts	-11.1421
anlage	-11.1423
ldots	-11.1424
▁syndrome	-11.1426
▁AC	-11.1427
Int	-11.1427
▁solving	-11.1428
▁Andrew	-11.1431
▁walking	-11.1431
▁char	-11.1432
▁comprehensive	-11.1435
▁Netzwerk	-11.1437
++	-11.1437
▁feelings	-11.1437
▁thoughts	-11.144
▁aim	-11.1441
▁zusätzliche	-11.1446
▁2015,	-11.1446
▁naturally	-11.1448
attr	-11.145
▁broad	-11.1451
▁Verantwortung	-11.1451
▁Gericht	-11.1452
▁Initiative	-11.1453
▁tag	-11.1454
▁button	-11.1455
▁360	-11.1456
▁fiction	-11.1456
▁Ausgabe	-11.1457
▁Study	-11.1458
▁dimensions	-11.1459
▁gründete	-11.146
▁entspricht	-11.1462
▁Area	-11.1463
▁1953	-11.1465
▁Alternative	-11.1469
▁concerned	-11.147
▁Beide	-11.147
▁Sonder	-11.1472
▁übernommen	-11.1473
loss	-11.1475
▁Ring	-11.1476
▁15,	-11.1476
▁token	-11.1478
▁1914	-11.148
Dir	-11.1481
well	-11.1481
▁Handy	-11.1484
▁Überblick	-11.1487
▁sit	-11.1488
▁erstellen	-11.1489
▁ändern	-11.1491
▁gewonnen	-11.1493
{10}	-11.15
process	-11.1501
▁Update	-11.1501
▁Lust	-11.1503
▁inter	-11.1504
▁Lady	-11.1505
▁virtual	-11.1505
▁interests	-11.1509
fs	-11.151
API	-11.1513
▁passiert	-11.1516
▁cast	-11.152
▁AI	-11.1521
Override	-11.1521
▁ahead	-11.1521
▁Philadelphia	-11.1522
▁Hinweis	-11.1522
▁roles	-11.1523
▁juice	-11.1525
▁curve	-11.1525
-1)	-11.1526
▁Materialien	-11.1526
▁Kern	-11.1526
▁Karte	-11.1527
▁crop	-11.1529
▁concentration	-11.1532
▁gestalten	-11.1533
▁Inter	-11.1533
▁Grenzen	-11.1534
▁Scottish	-11.1535
▁Zustand	-11.1536
cache	-11.1539
▁respond	-11.1541
▁vectors	-11.1541
▁lab	-11.1542
▁readers	-11.1544
▁Stunde	-11.1547
▁Fest	-11.1549
method	-11.155
▁Verwaltungs	-11.1552
▁officer	-11.1555
▁census	-11.1555
ini	-11.1557
▁Papier	-11.1559
▁participate	-11.1561
▁1918	-11.1564
▁Forschungs	-11.1564
▁Hauptstadt	-11.1564
▁großes	-11.1568
▁governments	-11.1569
▁scores	-11.1571
ment	-11.1572
▁Laufe	-11.1572
▁bio	-11.1575
▁Rome	-11.1575
ana	-11.1575
▁legen	-11.1576
Un	-11.1578
▁rectangular	-11.1579
▁React	-11.1582
>>	-11.1582
bank	-11.1582
▁forests	-11.1585
▁Sky	-11.1585
select	-11.1585
ster	-11.159
▁wildlife	-11.159
▁Interview	-11.1593
▁Chief	-11.1594
▁obj	-11.1594
▁healthcare	-11.1595
▁marble	-11.1595
▁Climate	-11.1596
▁substance	-11.1597
▁sogenannte	-11.1597
00	-11.16
▁Mittwoch	-11.16
▁coefficient	-11.1601
▁Darstellung	-11.1603
21	-11.1609
▁mark	-11.1609
house	-11.1615
▁capable	-11.1615
What	-11.1616
▁bekannten	-11.1616
▁Handlung	-11.1617
▁familiar	-11.1622
but	-11.1624
▁administration	-11.1625
▁Though	-11.1627
▁Final	-11.1629
▁Night	-11.1629
▁2014,	-11.1633
▁Abs	-11.1633
▁deutsch	-11.1635
▁Olympischen	-11.1636
geschichte	-11.1637
▁moon	-11.1638
auf	-11.1639
▁Smartphone	-11.1639
▁Look	-11.164
▁Haar	-11.1641
(`	-11.1642
programm	-11.1649
▁anderes	-11.1649
▁deiner	-11.1649
▁warten	-11.1649
▁Bewertung	-11.165
durchschnittlich	-11.1652
▁childhood	-11.1657
▁Harvard	-11.1657
▁Beach	-11.1658
▁script	-11.166
sche	-11.166
jährige	-11.1663
▁zählen	-11.1664
▁Care	-11.1665
▁1934	-11.1667
▁Förderung	-11.1669
▁layers	-11.1669
▁improving	-11.167
▁identical	-11.167
▁hauptsächlich	-11.1671
▁mountain	-11.1672
▁Solving	-11.1677
▁professionals	-11.1677
▁insurance	-11.1678
▁LED	-11.1678
▁collect	-11.1681
apache	-11.1682
´	-11.1682
▁Aktivitäten	-11.1684
▁Vorstand	-11.1686
▁infected	-11.169
▁Low	-11.169
ir	-11.1693
▁Akademie	-11.1694
▁&\	-11.1695
▁diagonal	-11.1695
▁2$,	-11.1696
▁Pakistan	-11.1702
▁Gründen	-11.1702
▁relations	-11.1704
▁Egypt	-11.171
▁Gespräch	-11.171
▁concrete	-11.1711
▁transportation	-11.1713
▁perpendicular	-11.1713
ING	-11.1713
▁unable	-11.1713
lock	-11.1718
author	-11.172
▁horizontal	-11.172
▁Leser	-11.1722
▁wichtiger	-11.1723
▁Gallery	-11.1731
▁'@	-11.1732
▁5)	-11.1733
▁mittels	-11.1736
▁beteiligt	-11.1738
▁Mountain	-11.1739
▁Atlantic	-11.174
▁profile	-11.1741
▁trained	-11.1742
▁Schluss	-11.1744
▁außerhalb	-11.1745
▁Öffentlichkeit	-11.1746
▁Aufnahme	-11.175
▁constraints	-11.1751
▁dance	-11.1753
}}{\	-11.1753
▁Mode	-11.1754
▁Fans	-11.1758
▁roll	-11.1758
▁2016,	-11.1759
▁Hessen	-11.176
▁Ph	-11.1763
▁survive	-11.1766
uint	-11.1766
▁Four	-11.1767
also	-11.1769
▁genannten	-11.1771
▁formal	-11.1773
▁comments	-11.1773
▁Singles	-11.1773
▁marked	-11.1774
▁Dein	-11.1774
▁inflammation	-11.1774
▁supplies	-11.178
▁SV	-11.1781
▁erzählt	-11.1782
▁doctors	-11.1782
▁schneller	-11.1783
▁contained	-11.1784
▁rapid	-11.1786
▁Termin	-11.1787
▁conference	-11.1788
▁supporting	-11.1794
▁sozialen	-11.1796
enden	-11.1796
▁Ohne	-11.1804
▁fell	-11.1804
▁Arthur	-11.1804
▁ex	-11.1805
▁Fläche	-11.1808
▁intake	-11.181
▁Beziehung	-11.181
▁entsteht	-11.1811
▁$1$	-11.1815
▁2009,	-11.1815
▁circles	-11.1815
▁>>	-11.1816
▁wheat	-11.1817
▁Key	-11.182
▁attached	-11.1824
▁Gestaltung	-11.1828
▁gallons	-11.1828
▁entsprechende	-11.183
▁instructions	-11.183
Builder	-11.1833
▁street	-11.1836
▁involve	-11.1838
plan	-11.1841
▁custom	-11.1842
▁millions	-11.1844
▁zone	-11.1846
can	-11.1847
▁Immobilien	-11.1847
▁1919	-11.1853
▁lake	-11.1855
▁males	-11.1856
▁justice	-11.1859
Container	-11.1859
▁stroke	-11.1862
=\	-11.1866
▁Try	-11.1867
▁award	-11.1867
▁Finanz	-11.1868
{4}	-11.1871
▁schloss	-11.1873
Up	-11.1876
▁monitor	-11.1877
▁Maler	-11.1877
▁Pop	-11.1879
mu	-11.1884
▁wider	-11.1885
▁bislang	-11.1885
▁Verkauf	-11.1888
▁Bach	-11.1888
book	-11.1889
▁Golden	-11.189
▁updated	-11.1893
▁Freizeit	-11.1894
▁Cloud	-11.1896
▁Bern	-11.1899
▁Rand	-11.1901
arbeit	-11.1901
▁Engagement	-11.1901
▁novels	-11.1903
▁agency	-11.1904
▁crime	-11.1904
[0].	-11.1906
▁possibility	-11.1911
▁2018,	-11.1915
Sehenswürdigkeit	-11.1916
▁1954	-11.1916
such	-11.1919
▁zugleich	-11.1919
▁vast	-11.192
▁standing	-11.1921
KEY	-11.1922
▁bisschen	-11.1922
^5	-11.1926
+1)	-11.1927
▁maintenance	-11.1927
▁serves	-11.193
▁impossible	-11.193
▁agencies	-11.1936
opt	-11.1937
▁Klaus	-11.1937
▁decline	-11.1939
▁Deutschlands	-11.1943
▁facility	-11.1944
header	-11.1944
▁Stress	-11.1945
▁discussed	-11.1945
▁1928	-11.1946
▁Staat	-11.1948
▁96	-11.1949
▁Harry	-11.1949
▁13,	-11.1952
▁wichtigen	-11.1955
▁hören	-11.1955
▁Bonn	-11.1957
region	-11.1958
▁AS	-11.1962
▁guidelines	-11.1964
▁debate	-11.1965
▁sensitive	-11.197
▁Parliament	-11.1972
▁Keep	-11.1977
▁experiments	-11.1978
▁Kreuz	-11.1978
handle	-11.1979
▁suffer	-11.198
▁Dass	-11.1982
▁issued	-11.1984
▁Change	-11.1984
▁hole	-11.1984
▁folgen	-11.1989
▁val	-11.1989
17	-11.1991
▁supports	-11.1991
▁Wisconsin	-11.1993
▁Solar	-11.1995
▁Wissenschaft	-11.1999
▁ultimately	-11.2002
▁Metern	-11.2003
▁1935	-11.2004
▁prevention	-11.2006
80	-11.2006
▁snow	-11.2007
▁Vorsitzender	-11.2008
▁Write	-11.2009
▁Staats	-11.2009
▁unless	-11.2009
components	-11.201
▁Vergangenheit	-11.201
▁Anteil	-11.2015
▁zwölf	-11.2019
tmp	-11.2019
▁procedures	-11.2024
▁Antworten	-11.2027
▁harmful	-11.2029
▁Ausland	-11.203
▁Monday	-11.2031
▁Alfred	-11.2032
▁Ziele	-11.2032
▁verheiratet	-11.2032
▁physics	-11.2037
click	-11.2039
▁Ford	-11.2041
▁Route	-11.2042
▁erwarten	-11.2042
ell	-11.2045
▁speaking	-11.2046
▁85	-11.2051
▁Hat	-11.2052
Header	-11.2054
▁sys	-11.2056
▁framework	-11.2056
▁Corporation	-11.2057
▁stands	-11.206
▁driver	-11.2063
^2}{	-11.2065
▁sah	-11.2066
ik	-11.2067
▁thin	-11.2067
▁door	-11.2067
tz	-11.2068
(1,	-11.2069
▁candidate	-11.2069
▁Islands	-11.2071
▁expanded	-11.2072
▁centers	-11.2072
▁Studenten	-11.2072
▁vessels	-11.2074
▁circuit	-11.2075
▁acquired	-11.2076
▁beginnen	-11.2078
▁Baum	-11.2079
▁toxic	-11.2085
▁Spanien	-11.2087
(4)	-11.2089
▁entdeckt	-11.2089
][	-11.2091
▁survival	-11.2091
▁Championships	-11.2092
▁exit	-11.2094
▁Building	-11.2095
▁Frei	-11.2099
▁französische	-11.2101
▁erlaubt	-11.2103
▁DC	-11.2108
home	-11.2108
(*	-11.2109
▁2008,	-11.2109
▁erklärte	-11.2109
3,	-11.2109
ard	-11.211
▁Ganz	-11.2111
▁detect	-11.2114
▁Trotz	-11.2114
▁Report	-11.2115
{1}{4}	-11.2118
▁erstes	-11.2119
▁mining	-11.212
ol	-11.2121
▁ear	-11.2122
▁°	-11.2122
▁receiving	-11.2125
▁2017,	-11.2126
▁Bitcoin	-11.2126
▁informieren	-11.2126
▁Cancer	-11.213
▁Fahrzeuge	-11.2131
▁transition	-11.2133
▁Satz	-11.2134
▁Keine	-11.2134
▁capture	-11.2135
Weltmeisterschaf	-11.2138
session	-11.2141
Provider	-11.2143
▁Kollegen	-11.2146
`,	-11.2148
les	-11.2149
▁ersetzt	-11.2152
▁Disease	-11.2154
tests	-11.2154
▁noise	-11.2155
▁Alice	-11.2157
▁diversity	-11.2159
ow	-11.216
▁possibilities	-11.2165
▁cups	-11.2167
▁waves	-11.2168
▁Smart	-11.217
▁movements	-11.2173
▁Presse	-11.2175
▁Weil	-11.2175
TYPE	-11.2179
▁directory	-11.2179
km	-11.218
▁Farb	-11.218
layer	-11.2182
▁Labor	-11.2186
zentrum	-11.2188
14	-11.219
▁übernehmen	-11.219
▁seeing	-11.219
▁übertragen	-11.2191
▁Herstellung	-11.2191
Address	-11.2193
▁britischen	-11.2194
▁geplant	-11.2198
▁worse	-11.2199
▁43	-11.2201
▁persons	-11.2201
▁Ka	-11.2201
▁shelves	-11.2201
▁flower	-11.2203
▁weder	-11.2204
▁2$.	-11.2206
lambda	-11.2208
▁Rechte	-11.2208
▁bags	-11.2208
▁circular	-11.2213
▁calories	-11.2214
Function	-11.2214
▁klassischen	-11.2215
As	-11.2216
▁owners	-11.2217
▁41	-11.2219
▁Nummer	-11.2223
▁slowly	-11.2225
gl	-11.2233
ga	-11.2234
cmd	-11.2235
▁hinzu	-11.2236
▁Tim	-11.2242
▁weiteres	-11.2243
▁offset	-11.2244
▁zeigte	-11.2244
▁trust	-11.2246
▁Multi	-11.2248
▁reserved	-11.2252
cap	-11.2252
▁maps	-11.2253
▁universe	-11.2254
▁achten	-11.2255
▁recording	-11.2256
▁besuchen	-11.2258
▁geschlossen	-11.2259
park	-11.2263
▁Coast	-11.2264
▁Jim	-11.2268
▁gemeinsamen	-11.2273
▁apart	-11.2273
▁Mission	-11.2274
je	-11.2276
▁lifestyle	-11.228
make	-11.2281
▁cognitive	-11.2282
▁accept	-11.2282
▁persönliche	-11.2284
▁verhindern	-11.2285
+1}	-11.2286
möglichkeiten	-11.2289
There	-11.2289
▁genauso	-11.229
▁Friday	-11.229
DE	-11.2294
▁51	-11.2294
▁beneficial	-11.2297
▁16,	-11.2298
▁knew	-11.2299
▁Sometimes	-11.23
▁sharing	-11.2304
▁compliance	-11.2308
▁camp	-11.2308
▁girl	-11.2309
▁Returns	-11.2309
▁Betriebs	-11.2311
put	-11.2315
▁guter	-11.2318
▁einzelne	-11.2321
▁politics	-11.2322
prototype	-11.2325
▁Spielautomaten	-11.2333
▁applicable	-11.2334
▁1937	-11.2337
▁calcium	-11.2337
▁cutting	-11.2339
▁Traum	-11.2341
$-	-11.2345
▁Minnesota	-11.2347
▁Military	-11.2347
▁faith	-11.2348
▁publication	-11.2349
▁calculation	-11.2354
▁tall	-11.2354
meister	-11.2356
▁Kids	-11.2357
▁none	-11.2358
Str	-11.236
▁Technologie	-11.2362
▁höher	-11.2362
▁Lewis	-11.2364
▁Child	-11.2364
▁Teilen	-11.2364
▁Vielleicht	-11.2365
▁extension	-11.2367
white	-11.2371
▁Einrichtung	-11.2373
▁audio	-11.2374
▁alter	-11.2374
Resource	-11.2376
▁warming	-11.2377
▁Stimmen	-11.2382
versicherung	-11.2382
▁molecules	-11.2383
▁Maya	-11.2384
▁signals	-11.2387
▁klein	-11.2387
fall	-11.2388
▁twenty	-11.2388
▁langsam	-11.2388
▁dienen	-11.2389
▁Gewalt	-11.2389
▁fail	-11.2389
▁Punkten	-11.239
▁copies	-11.239
▁wish	-11.2391
▁authorities	-11.2391
zone	-11.2393
▁Wand	-11.2393
▁Researchers	-11.2398
▁skill	-11.2403
▁engage	-11.2406
▁Einwohnern	-11.2407
▁Vielzahl	-11.2408
▁consumers	-11.2409
▁producer	-11.2411
▁limits	-11.2414
▁Dienstag	-11.2414
▁früh	-11.242
▁Koch	-11.2421
▁instruction	-11.2422
öl	-11.2422
▁Wilson	-11.2426
▁desired	-11.2426
void	-11.2428
▁größeren	-11.2432
▁minimize	-11.2436
▁südlich	-11.2439
Factory	-11.2439
▁delete	-11.2443
▁Typ	-11.2443
▁insects	-11.2444
▁starke	-11.2444
▁laufen	-11.2445
▁Ausstattung	-11.2446
▁produziert	-11.2446
▁sale	-11.2449
▁damaged	-11.245
▁usw	-11.245
▁Which	-11.2452
▁cubes	-11.2455
▁CDU	-11.2457
▁expert	-11.2457
▁WM	-11.2459
manager	-11.246
▁Sarah	-11.2465
▁prominent	-11.2467
▁fossil	-11.2468
▁scope	-11.2468
▁gehalten	-11.2469
{8}	-11.247
ium	-11.2472
ex	-11.2472
▁Ski	-11.2472
▁drama	-11.2473
▁assistance	-11.248
▁EUR	-11.2482
▁Aktion	-11.2484
▁neither	-11.2485
ball	-11.2487
▁Manager	-11.2488
!("	-11.2488
▁resulted	-11.2489
third	-11.2491
▁emotions	-11.2492
▁dates	-11.2493
▁Agency	-11.2494
kreis	-11.2494
PATH	-11.2497
▁colour	-11.2498
▁logger	-11.2498
▁trifft	-11.2499
sys	-11.25
▁asks	-11.2501
▁dritte	-11.2501
▁launch	-11.2502
▁Orte	-11.2505
mi	-11.2506
mask	-11.2507
▁Gelände	-11.251
▁Oregon	-11.2511
▁Sozial	-11.2512
▁Ur	-11.2513
▁YouTube	-11.2514
▁Patrick	-11.2514
▁Error	-11.2516
non	-11.2517
▁earn	-11.2518
▁Wechsel	-11.2518
▁holding	-11.2519
▁1910	-11.2519
▁msg	-11.252
▁Prime	-11.2522
▁Filme	-11.2523
dienst	-11.2526
▁lots	-11.2529
▁arts	-11.2531
schaft	-11.2532
▁orange	-11.2532
▁necessarily	-11.2534
▁logging	-11.2535
▁configuration	-11.2537
13	-11.254
▁Supreme	-11.2545
▁opinion	-11.2547
▁subsequent	-11.2548
▁Level	-11.2548
▁ernannt	-11.2549
▁assistant	-11.2549
Württemberg	-11.2553
▁spaces	-11.2554
▁Bedarf	-11.256
ms	-11.2561
▁Promise	-11.2563
10-100	-11.2563
▁principal	-11.2565
▁schützen	-11.2565
My	-11.2565
▁ring	-11.2567
▁Phase	-11.2567
▁18,	-11.2568
▁boat	-11.2568
An	-11.2569
▁cloud	-11.2574
▁Country	-11.2574
▁resolution	-11.2575
▁conduct	-11.2579
▁einfache	-11.2581
▁instrument	-11.2581
▁advance	-11.2583
▁Mobile	-11.2587
▁denken	-11.2592
01	-11.2593
private	-11.2593
▁Quellen	-11.2593
▁comparison	-11.2595
▁strict	-11.2597
za	-11.2598
So	-11.2598
▁sheet	-11.2598
▁categories	-11.2601
▁personnel	-11.2601
▁recognition	-11.2602
register	-11.2603
▁historischen	-11.2603
▁colleagues	-11.2603
▁Davis	-11.2605
▁'../	-11.2608
entry	-11.2608
▁newly	-11.261
▁Datenschutz	-11.2611
▁höchsten	-11.2614
▁fiber	-11.2615
▁CBD	-11.2615
▁Geschäftsführer	-11.2615
word	-11.2616
▁visitors	-11.262
▁deinem	-11.262
▁47	-11.2621
▁Official	-11.2622
▁uint	-11.2622
▁gap	-11.2624
nach	-11.2625
▁Modelle	-11.2626
▁Auflage	-11.2627
▁Lied	-11.2629
▁Geschmack	-11.263
▁corn	-11.263
▁Resources	-11.2631
▁connections	-11.2632
▁territory	-11.2633
▁hielt	-11.2637
bis	-11.264
▁Analyse	-11.264
▁Jr	-11.2645
▁Stadtteil	-11.2647
▁instruments	-11.265
▁fiel	-11.2652
60	-11.2652
▁Vier	-11.2653
▁secret	-11.2654
abc	-11.2655
!"	-11.2656
▁Prize	-11.2656
low	-11.2658
▁Gefahr	-11.266
▁1932	-11.2661
▁Tat	-11.2663
▁präsentiert	-11.2664
▁Salz	-11.2666
▁Richter	-11.2673
▁funds	-11.2678
▁choosing	-11.268
▁Performance	-11.268
▁asking	-11.2686
▁Beruf	-11.2687
▁Kann	-11.269
▁extrem	-11.2691
Or	-11.2692
▁tour	-11.2694
▁Justice	-11.2696
▁Architektur	-11.2697
▁Wohn	-11.2699
▁1929	-11.2701
▁Sydney	-11.2703
betrieb	-11.2704
▁operate	-11.2704
▁executive	-11.2715
▁99	-11.2715
▁password	-11.2716
▁collaboration	-11.2716
<'	-11.2717
channel	-11.2719
▁Herzen	-11.2719
active	-11.272
▁DVD	-11.2723
▁Brazil	-11.2728
▁provider	-11.2728
hausen	-11.2733
▁liebe	-11.2734
ti	-11.2734
siehe	-11.2735
▁benannt	-11.2736
▁Java	-11.2736
▁jährlich	-11.2737
▁agent	-11.2737
▁Tradition	-11.2739
▁equally	-11.2739
▁examine	-11.274
100	-11.274
▁Due	-11.2741
▁Gerade	-11.2742
▁Olivia	-11.2743
▁Autoren	-11.2743
90	-11.2743
email	-11.2744
▁interaction	-11.2745
▁Kanton	-11.2746
▁Interessen	-11.2747
▁Reading	-11.2749
template	-11.2751
▁newspaper	-11.2756
▁Sunday	-11.2761
▁kurzen	-11.2762
▁3\	-11.2765
led	-11.2766
▁smart	-11.2766
▁enhance	-11.2768
▁Does	-11.2773
▁7:	-11.2773
▁hervor	-11.2773
wert	-11.2775
▁Bi	-11.2776
▁Status	-11.2776
▁Werner	-11.2776
▁Medizin	-11.2777
▁],	-11.278
▁adds	-11.2783
expect	-11.2784
▁Retrieved	-11.2784
▁""	-11.2785
that	-11.2786
▁repeated	-11.2788
▁Arizona	-11.2788
▁discount	-11.2789
▁Fahrer	-11.2792
▁stable	-11.2792
▁Formen	-11.2794
▁modified	-11.2794
▁officers	-11.2797
inger	-11.2797
▁125	-11.2798
▁environments	-11.28
▁brief	-11.2802
▁Tore	-11.2802
▁arm	-11.2803
▁Steve	-11.2804
▁Result	-11.2805
▁Schauspielerin	-11.2808
▁überall	-11.2809
▁Europäischen	-11.2809
▁aspect	-11.281
▁Prince	-11.281
▁Turm	-11.2813
▁81	-11.2817
▁laboratory	-11.2817
▁Democratic	-11.2818
▁contemporary	-11.2818
▁En	-11.2819
▁Schriften	-11.282
^\	-11.2824
▁fmt	-11.2826
▁Bericht	-11.2826
▁sufficient	-11.2826
▁corner	-11.2827
▁Know	-11.2829
▁underlying	-11.2829
Instance	-11.283
▁kennt	-11.2833
▁behaviour	-11.2833
light	-11.2834
wagen	-11.2836
▁delivery	-11.2837
▁immediate	-11.2838
▁tangent	-11.2839
▁truly	-11.2843
bool	-11.2844
▁Francis	-11.2845
▁algorithm	-11.2845
_1$	-11.2847
water	-11.2847
▁Hi	-11.2849
▁erstellt	-11.2849
Fernsehserie	-11.2851
▁1)(	-11.2851
▁troops	-11.2853
▁könne	-11.2853
ford	-11.2855
▁mechanism	-11.2856
▁singer	-11.2857
▁vermeiden	-11.2857
container	-11.2859
▁160	-11.2859
){	-11.286
▁Benutzer	-11.286
▁columns	-11.2862
▁→	-11.2865
▁Taylor	-11.2867
▁transmission	-11.287
Check	-11.2871
▁damaligen	-11.2874
▁consistent	-11.2875
uri	-11.2877
▁rational	-11.2877
▁cash	-11.2878
ists	-11.2879
▁smoke	-11.2879
▁zieht	-11.288
▁bx	-11.2882
▁gutes	-11.2883
▁vergessen	-11.2884
▁temple	-11.2888
hour	-11.2889
▁Miss	-11.2889
▁Holy	-11.2889
▁gained	-11.289
gov	-11.2891
▁Schlacht	-11.2891
▁Similarly	-11.2893
▁starken	-11.2897
▁starten	-11.2898
▁Rücken	-11.29
copy	-11.29
▁panel	-11.2902
▁späteren	-11.2903
▁railway	-11.2904
▁saved	-11.2905
▁Track	-11.2908
▁Dom	-11.2911
logger	-11.2919
▁egal	-11.292
▁Full	-11.2924
ger	-11.2928
▁setup	-11.2928
▁Kooperation	-11.2929
▁Verlauf	-11.293
▁46	-11.293
▁windows	-11.2931
▁Stephen	-11.2931
▁Herrschaft	-11.2933
mp	-11.2938
▁Kim	-11.294
▁Bewertungen	-11.294
Ein	-11.294
▁replacement	-11.2941
▁nahezu	-11.2941
▁claimed	-11.2941
▁Kong	-11.2942
▁vocals	-11.2942
{12}	-11.2943
▁politician	-11.2943
schema	-11.2944
▁spending	-11.2945
▁Map	-11.2945
25	-11.2946
▁magnetic	-11.2947
pass	-11.2949
?"	-11.2949
liche	-11.2951
▁nutrition	-11.2952
▁Po	-11.2955
▁Les	-11.2955
^{\	-11.2956
def	-11.2956
▁operated	-11.2958
{2}{3}	-11.2958
▁planned	-11.2959
▁carefully	-11.2961
▁kehrte	-11.2962
▁schedule	-11.2962
▁Hamburger	-11.2967
▁Bell	-11.2968
(5)	-11.2969
▁Bezirk	-11.297
▁20%	-11.2971
Entry	-11.2971
▁Corps	-11.2971
▁parse	-11.2973
▁buffer	-11.2974
▁Ed	-11.2977
▁labels	-11.2978
▁Kontrolle	-11.2978
▁Chef	-11.298
▁Maschinen	-11.2982
)))	-11.2986
á	-11.299
▁1912	-11.2992
▁difficulty	-11.2999
▁stomach	-11.3001
▁victory	-11.3003
▁Münster	-11.3005
board	-11.3006
▁1800	-11.3011
▁Publikum	-11.3015
▁Chapter	-11.3019
▁communicate	-11.3021
Not	-11.3028
▁Minute	-11.3029
▁obvious	-11.3031
▁moderne	-11.3032
▁declared	-11.3035
▁Fischer	-11.3036
▁Korean	-11.3037
▁assist	-11.3037
▁Galerie	-11.3037
rad	-11.3038
▁studio	-11.3039
tor	-11.3041
▁greatly	-11.3041
▁Bier	-11.3042
▁fractions	-11.3042
▁continuous	-11.3043
▁zufrieden	-11.3043
▁fighting	-11.3043
▁Vec	-11.3044
▁sport	-11.3044
▁Min	-11.3044
▁Fleisch	-11.3044
▁Death	-11.3045
Default	-11.3045
▁Base	-11.3045
▁24,	-11.3046
▁Sachen	-11.3047
▁Verhalten	-11.3049
▁Local	-11.3051
▁$3$	-11.3053
▁belief	-11.3053
▁voller	-11.3053
▁50%	-11.306
▁designs	-11.3061
'])	-11.3063
▁Weiterlesen	-11.3065
▁Leider	-11.3066
19	-11.3066
▁möglicherweise	-11.3066
▁Geschichten	-11.3066
▁schreibt	-11.3069
amerikanische	-11.3073
▁spiele	-11.3074
▁tail	-11.3076
▁visited	-11.3077
▁Unfortunately	-11.3078
▁Rudolf	-11.3079
▁Kunde	-11.308
////////////////	-11.308
▁Wettbewerb	-11.3081
▁Ali	-11.3083
▁Privat	-11.3085
▁stieg	-11.3086
bc	-11.3087
▁14,	-11.3087
^2$.	-11.3088
▁binary	-11.309
▁push	-11.309
▁neck	-11.3091
▁Sammlung	-11.3092
▁Zusätzlich	-11.3093
▁committee	-11.3093
buf	-11.3097
▁Ontario	-11.3098
▁Fahrt	-11.3099
▁conventional	-11.3099
▁Lincoln	-11.31
▁TO	-11.3101
▁perfekte	-11.3102
▁Basel	-11.3103
+\	-11.311
▁Gegner	-11.311
ml	-11.3111
▁außer	-11.3113
▁Ernährung	-11.3113
▁leaf	-11.3115
▁Linux	-11.3116
▁Dan	-11.3119
▁approved	-11.3119
▁1921	-11.3121
▁2.5	-11.3123
grid	-11.3126
▁Call	-11.3128
License	-11.313
▁callback	-11.3132
▁Bridge	-11.3134
▁nördlich	-11.3134
▁rising	-11.3135
▁governing	-11.3136
▁Pythagorean	-11.3136
▁Fast	-11.3136
including	-11.3136
▁habits	-11.3141
▁gefallen	-11.3144
▁Englisch	-11.3146
▁17,	-11.3147
▁versions	-11.3148
▁Struktur	-11.3149
▁peak	-11.3151
instance	-11.3153
▁fly	-11.3154
▁inscribed	-11.3154
▁escape	-11.3156
▁taste	-11.3158
▁captured	-11.3161
ismus	-11.3162
▁höchste	-11.3163
▁bekam	-11.3165
settings	-11.3167
▁Therapie	-11.3169
pdf	-11.3169
▁greenhouse	-11.317
▁befand	-11.317
▁Wikipedia	-11.3173
▁"${	-11.3174
▁arranged	-11.3174
▁copyright	-11.3177
▁Später	-11.318
Params	-11.3182
22	-11.3184
▁diagnosed	-11.3184
▁Pass	-11.3184
▁db	-11.3186
▁Missouri	-11.3187
▁Philipp	-11.3187
▁beraten	-11.3191
▁Regeln	-11.3195
"))	-11.3196
▁diente	-11.3196
▁presentation	-11.3196
IP	-11.3197
▁buried	-11.3199
▁dioxide	-11.3199
▁sky	-11.3201
▁Villa	-11.3201
▁abgeschlossen	-11.3201
▁Leo	-11.3202
▁Feuerwehr	-11.3205
▁factorization	-11.3205
▁4$	-11.3206
making	-11.3206
▁smoking	-11.3206
▁outcome	-11.3207
▁struggle	-11.3207
Method	-11.3213
▁Zweck	-11.3214
Length	-11.3215
▁artificial	-11.3222
▁Ten	-11.3223
}{4}	-11.3224
▁Bett	-11.3224
▁harm	-11.3226
▁partners	-11.3226
▁Geschäfts	-11.3229
▁Handels	-11.323
▁vulnerable	-11.3231
▁wann	-11.3231
▁Konzert	-11.3232
toBe	-11.3238
▁satellite	-11.3238
▁verfügen	-11.3238
▁bright	-11.3239
▁mask	-11.324
▁technischen	-11.3241
await	-11.3241
▁evaluation	-11.3242
▁nerve	-11.3243
▁Rund	-11.3244
▁trials	-11.3245
▁positiv	-11.3245
meta	-11.3246
▁Sekunden	-11.3248
work	-11.3248
▁oldest	-11.325
▁Tipp	-11.3251
exports	-11.3252
Dienstleistungen	-11.3254
training	-11.3257
▁Musiker	-11.3258
▁eigenes	-11.3259
▁Sri	-11.3259
▁routine	-11.3261
▁loop	-11.3261
Dollar	-11.3262
feature	-11.3263
▁Plattform	-11.3263
▁breathing	-11.3264
Be	-11.3264
}{3}	-11.3265
▁parameter	-11.3266
▁granted	-11.3266
daten	-11.3267
ius	-11.3268
▁kennenlernen	-11.3269
▁2007,	-11.3269
▁consumer	-11.327
▁Informations	-11.3271
real	-11.3271
▁boy	-11.3271
▁Mio	-11.3272
▁implement	-11.3273
mail	-11.3275
▁compounds	-11.3275
▁fellow	-11.3278
32,	-11.328
▁Samuel	-11.328
▁Without	-11.3287
▁Abteilung	-11.3288
pool	-11.3289
▁MS	-11.3289
▁1500	-11.3289
▁spiritual	-11.3292
bild	-11.3293
▁verlor	-11.3294
▁offering	-11.3295
▁Castle	-11.3296
▁gone	-11.3297
▁confirmed	-11.3299
▁Hinweise	-11.3305
▁ständig	-11.3307
dataset	-11.3309
Cache	-11.3311
▁Golf	-11.3313
▁deck	-11.3315
▁ent	-11.3318
▁Außen	-11.3319
▁ID	-11.332
{}	-11.3321
▁Einrichtungen	-11.3323
game	-11.3328
▁Einzahlung	-11.333
▁feedback	-11.333
▁Charakter	-11.3332
stelle	-11.3334
▁FROM	-11.3334
▁Fritz	-11.3336
▁Oliver	-11.3336
▁erzielte	-11.3337
▁Religion	-11.3338
▁Sa	-11.3339
▁bi	-11.3341
▁Toronto	-11.3341
▁Paar	-11.3341
▁Slots	-11.3345
▁Hong	-11.3346
▁tube	-11.3346
film	-11.3347
▁debt	-11.3348
▁Safety	-11.3349
Position	-11.3349
component	-11.335
▁Werbung	-11.3353
▁Several	-11.3354
▁6$	-11.3357
▁bewusst	-11.3357
▁meal	-11.3358
▁Portugal	-11.3358
▁implemented	-11.3359
▁Reserve	-11.3359
▁dürfte	-11.3362
▁discover	-11.3365
▁Zuschauer	-11.3366
second	-11.3367
▁schwarz	-11.3373
▁regulations	-11.3376
▁actors	-11.3379
▁selling	-11.338
▁Members	-11.3382
▁Christoph	-11.3386
▁challenging	-11.3386
▁roof	-11.3389
▁behandelt	-11.3389
▁classical	-11.3389
▁vorgestellt	-11.339
▁brings	-11.339
▁Jung	-11.3391
▁aren	-11.3392
▁Fund	-11.3395
▁reactions	-11.3397
▁Jerusalem	-11.3399
▁Weiß	-11.3401
▁Islam	-11.3403
option	-11.3404
bus	-11.3407
▁rice	-11.3408
▁explanation	-11.3408
wirtschaftlichen	-11.341
▁Iowa	-11.341
▁1911	-11.3411
▁1927	-11.3412
▁Verbraucher	-11.3412
â	-11.3412
location	-11.3413
▁Gesetz	-11.3414
▁privaten	-11.3417
▁Maryland	-11.3419
▁randomly	-11.3419
▁Truppen	-11.3421
▁10%	-11.3423
▁Integration	-11.3429
child	-11.3429
ak	-11.343
▁wealth	-11.3431
▁Prüfung	-11.3432
▁mathematics	-11.3433
▁functional	-11.3435
▁representing	-11.3436
window	-11.3436
▁AB	-11.3438
▁1925	-11.344
▁Operation	-11.3441
▁Dollar	-11.3447
▁Wood	-11.3448
▁Brief	-11.3448
▁translation	-11.3449
pop	-11.3449
part	-11.345
▁narrow	-11.3451
▁63	-11.3454
+1	-11.3458
▁Dortmund	-11.3461
▁improvement	-11.3461
bi	-11.3462
▁observe	-11.3463
▁Schlüssel	-11.3466
▁employed	-11.3466
▁gemeinsame	-11.3467
▁elections	-11.3469
▁Stern	-11.347
▁segments	-11.3471
▁Ministry	-11.3473
expected	-11.3474
▁Yoga	-11.3476
▁Bund	-11.3476
▁speziell	-11.3477
ā	-11.3479
▁politicians	-11.348
▁exercises	-11.348
▁losing	-11.348
▁hidden	-11.3481
Task	-11.3481
det	-11.3482
At	-11.3485
▁Fahrrad	-11.3486
▁dust	-11.3488
▁Word	-11.3489
▁140	-11.349
▁besitzen	-11.3491
▁Sprach	-11.3494
▁putting	-11.3495
▁110	-11.3495
▁Krankenhaus	-11.3496
▁Gesicht	-11.3497
▁branches	-11.3502
▁kidney	-11.3502
▁stores	-11.3504
▁Photo	-11.3509
▁eingestellt	-11.3509
ny	-11.3509
▁API	-11.3511
▁belegte	-11.3521
▁storm	-11.3521
▁Barbara	-11.3522
▁understood	-11.3525
sample	-11.3527
tr	-11.3528
▁clothing	-11.3529
bind	-11.353
▁outer	-11.3531
▁heiratete	-11.3531
▁Erste	-11.3533
▁Bronze	-11.3533
▁bestätigt	-11.3538
win	-11.354
▁estimate	-11.354
▁Bühne	-11.3541
▁Spring	-11.3544
wissenschaft	-11.3544
sport	-11.3546
some	-11.3546
auth	-11.3546
-4	-11.3549
"""	-11.3549
▁Ho	-11.3549
▁welchen	-11.355
▁voltage	-11.3553
▁Kein	-11.3553
▁acids	-11.3555
▁legislation	-11.3557
▁erweitert	-11.3559
▁überzeugt	-11.3559
▁reviews	-11.356
▁confidence	-11.3561
▁observations	-11.3561
▁seats	-11.3566
insert	-11.3567
▁BBC	-11.3567
gruppen	-11.3567
▁clubs	-11.3569
▁Anton	-11.3573
▁Untersuchung	-11.3573
ze	-11.3575
frei	-11.3576
í	-11.3577
▁erklären	-11.3577
▁separated	-11.3577
▁Mi	-11.3577
▁inverse	-11.3578
▁accessible	-11.3579
▁nodes	-11.3581
▁Konto	-11.3583
▁teilen	-11.3585
▁bestellen	-11.3586
▁Ordnung	-11.3586
▁photos	-11.3591
▁pyramid	-11.3593
dfrac	-11.3595
▁Stahl	-11.3597
▁summary	-11.3601
▁Verbesserung	-11.3603
▁Tanz	-11.3607
▁Senate	-11.3611
▁measurement	-11.3611
▁minerals	-11.3611
▁mock	-11.3613
gemeinschaft	-11.3617
Bar	-11.3618
▁Indiana	-11.3619
▁Run	-11.3619
▁Lesen	-11.3619
▁attempts	-11.362
▁pure	-11.3621
Level	-11.3622
▁erhöht	-11.3623
▁Professional	-11.3624
Style	-11.3625
▁realize	-11.3627
▁counter	-11.3627
▁Gattung	-11.3628
_{\	-11.3629
▁Allen	-11.3631
▁Wagen	-11.3631
weight	-11.3633
▁Produkten	-11.3633
Option	-11.3638
▁lands	-11.3639
▁permission	-11.3641
▁revenue	-11.3648
▁beschrieben	-11.3649
▁agree	-11.3651
ker	-11.3653
▁Austria	-11.3654
▁independence	-11.3656
▁Theatre	-11.3658
ful	-11.3658
▁ret	-11.3659
▁Stock	-11.3659
zero	-11.3661
▁View	-11.3663
izing	-11.3665
Open	-11.3666
▁arrangement	-11.3667
▁gestaltet	-11.3667
{11}	-11.3669
'))	-11.3669
▁managers	-11.3669
▁gingen	-11.367
^6	-11.367
▁Hafen	-11.367
▁reverse	-11.3674
▁Weiter	-11.3674
▁Freiburg	-11.3678
▁lie	-11.3679
▁erinnert	-11.368
▁Zeitraum	-11.3681
final	-11.3681
▁ausreichend	-11.3682
▁rivers	-11.3682
1_	-11.3688
▁duration	-11.369
green	-11.3692
▁conclusion	-11.3693
▁Audio	-11.3693
▁hydrogen	-11.3693
only	-11.3696
▁mg	-11.3697
▁pencils	-11.3697
▁daraus	-11.37
▁Schmidt	-11.3701
▁moral	-11.3702
▁Unterschied	-11.3703
Max	-11.3709
▁Königs	-11.3711
gut	-11.3711
▁entdecken	-11.3712
ER	-11.3713
▁Geburtstag	-11.3714
▁Stimme	-11.3714
resource	-11.3715
▁frequent	-11.3716
▁cholesterol	-11.3717
conf	-11.3717
▁wünschen	-11.3719
ds	-11.372
▁tracks	-11.3721
▁Nürnberg	-11.3721
▁erscheinen	-11.3722
▁schlecht	-11.3723
▁ehemaliger	-11.3724
▁Table	-11.3726
▁usize	-11.3726
render	-11.3726
▁defeated	-11.3728
▁thick	-11.3729
▁tritt	-11.3732
gt	-11.3733
2_	-11.3734
▁Standards	-11.3734
tt	-11.3735
▁Verarbeitung	-11.3736
site	-11.3736
▁Methoden	-11.3737
▁markets	-11.3738
▁Yes	-11.374
▁Kino	-11.3742
▁gift	-11.3744
▁cultures	-11.3746
▁(1,	-11.375
que	-11.375
sky	-11.3751
▁Waren	-11.3754
▁bonus	-11.3756
▁Reichs	-11.3758
▁faculty	-11.3759
▁verändert	-11.3759
La	-11.3759
▁Kriegs	-11.376
▁Unfall	-11.3762
▁brand	-11.3762
▁toll	-11.3763
▁Frühjahr	-11.3764
▁Rio	-11.3765
▁Garden	-11.3766
▁rank	-11.3766
spiele	-11.3767
Preis	-11.3768
▁individuell	-11.3772
▁musst	-11.3773
▁$12	-11.3773
▁Verbreitung	-11.3776
▁magnitude	-11.3778
▁unabhängig	-11.3779
▁exam	-11.3783
Out	-11.3783
▁herum	-11.3783
▁Cape	-11.3784
▁Fr	-11.3785
▁absolut	-11.3786
▁rot	-11.3788
▁kleines	-11.3789
▁bekannte	-11.3789
▁circumstances	-11.3791
(-1)	-11.3792
▁Camp	-11.3792
▁ha	-11.3792
▁Ross	-11.3793
▁Geschäft	-11.3793
Body	-11.3794
ski	-11.3795
▁Champions	-11.3795
▁ok	-11.3796
▁Werte	-11.3796
▁tower	-11.3797
▁Immer	-11.38
▁Texte	-11.3802
arbeiten	-11.3802
▁Benjamin	-11.3802
▁deliver	-11.3803
▁Schnee	-11.3803
phase	-11.3807
▁MIT	-11.3807
▁knowing	-11.3807
▁ongoing	-11.3808
▁delivered	-11.3808
▁maintaining	-11.3812
▁1926	-11.3812
^3$	-11.3813
▁rotation	-11.3813
▁shapes	-11.3816
ber	-11.3816
▁committed	-11.3817
▁reduces	-11.3817
23	-11.3817
▁Temperatur	-11.3818
▁#!/	-11.3819
▁Adding	-11.3821
▁caught	-11.3823
▁ingredients	-11.3824
▁simplified	-11.3824
▁bear	-11.3824
round	-11.3825
▁alleine	-11.3825
▁Mexican	-11.3829
Width	-11.3834
▁hoher	-11.3835
▁pipe	-11.3835
▁porno	-11.3836
▁Vietnam	-11.3839
▁Austausch	-11.3839
▁everyday	-11.3845
]);	-11.385
▁Heritage	-11.3851
▁Kommentar	-11.3851
▁connecting	-11.3852
▁Soldaten	-11.3855
▁transferred	-11.3856
▁Slot	-11.3859
ci	-11.3861
▁suffered	-11.3861
▁Anzeige	-11.3864
▁Herzog	-11.3866
▁facing	-11.3867
▁Block	-11.387
▁dahin	-11.3873
ret	-11.3877
▁1924	-11.3877
▁automatically	-11.3877
▁];	-11.3884
▁rooms	-11.3887
▁settlement	-11.389
▁shorter	-11.3891
▁000	-11.3893
▁engineer	-11.3894
▁lowest	-11.3894
BD	-11.3896
▁Treffen	-11.3898
▁fertig	-11.3898
▁Duke	-11.39
▁targets	-11.39
▁ounces	-11.3903
▁feeding	-11.3906
▁Bestellung	-11.3906
▁dealing	-11.3906
▁honor	-11.3908
black	-11.3908
▁HD	-11.391
▁Student	-11.391
fa	-11.3912
dy	-11.3913
▁converted	-11.3915
▁grows	-11.3917
▁eure	-11.3919
▁wirken	-11.3921
▁legte	-11.3923
▁factory	-11.3924
▁bessere	-11.3925
▁scenario	-11.3925
▁crew	-11.3926
▁tut	-11.3926
▁Secretary	-11.3926
▁bauen	-11.3927
▁Danke	-11.3928
▁responses	-11.3929
▁Help	-11.393
▁operator	-11.3932
▁Zucker	-11.3937
pre	-11.3938
▁Las	-11.3939
▁Landwirtschaft	-11.394
▁lay	-11.394
ō	-11.3941
▁inkl	-11.3941
▁prefer	-11.3943
▁inklusive	-11.3944
▁prism	-11.3948
kopf	-11.395
▁kilometers	-11.395
▁überwiegend	-11.3951
▁calling	-11.3953
▁tief	-11.3958
stop	-11.3959
▁TABLE	-11.3962
cy	-11.3962
▁stammen	-11.3963
▁genus	-11.3964
▁Kansas	-11.3968
wa	-11.3968
▁performing	-11.397
▁erschienen	-11.397
▁Jo	-11.3972
▁passende	-11.3973
▁philosophy	-11.3975
▁benutzt	-11.3975
▁Python	-11.3975
▁babies	-11.3977
▁leisten	-11.398
▁Fan	-11.3983
▁Sebastian	-11.3986
▁Turnier	-11.3986
▁piano	-11.3989
▁Volks	-11.3991
▁Ltd	-11.3993
▁fehlt	-11.3993
▁Waffen	-11.3995
▁Schwester	-11.3995
▁Way	-11.3997
fields	-11.3997
▁coin	-11.3997
€	-11.3998
▁depend	-11.4002
▁demonstrate	-11.4002
+2	-11.4002
▁Volume	-11.4005
lage	-11.4005
▁144	-11.4005
▁Wärme	-11.4006
▁desire	-11.4007
▁waters	-11.4009
wasser	-11.4012
▁Homepage	-11.4014
cell	-11.4015
▁Herkunft	-11.4016
▁generations	-11.4016
▁grass	-11.4017
Jährige	-11.4018
▁Still	-11.4019
▁implied	-11.4023
▁Te	-11.4024
▁thousand	-11.4025
job	-11.4027
▁Polish	-11.4028
▁Atmosphäre	-11.403
▁whereas	-11.4031
▁Organization	-11.4033
▁essays	-11.4033
▁Zusammen	-11.4037
▁objective	-11.4037
▁näher	-11.4038
▁aims	-11.4039
▁Schwerpunkt	-11.4042
Serie	-11.4043
▁Spitze	-11.4043
▁Trump	-11.4048
▁psychological	-11.4052
▁Freiheit	-11.4052
▁reaching	-11.4053
~	-11.4054
xml	-11.4057
▁Großbritannien	-11.406
▁savings	-11.4061
▁Dennoch	-11.4065
▁criteria	-11.4067
▁subsequently	-11.4067
▁Private	-11.4068
▁1917	-11.4068
dom	-11.4069
ov	-11.4074
▁wesentlich	-11.4075
▁assess	-11.4077
▁Häuser	-11.4078
▁rechten	-11.4079
▁Ebene	-11.408
▁Between	-11.408
▁Whether	-11.4084
▁verdienen	-11.4084
▁Conservation	-11.4085
▁thanks	-11.4086
▁rocks	-11.4087
▁hypotenuse	-11.4088
▁'''	-11.4088
▁1923	-11.409
▁folgender	-11.4091
▁Papst	-11.4092
negative	-11.4092
▁Constitution	-11.4095
▁Messe	-11.41
▁Premier	-11.4101
▁Arbeitgeber	-11.4102
▁fever	-11.4102
▁Zeitschrift	-11.4104
▁transform	-11.4104
▁Fokus	-11.4109
▁flows	-11.411
▁scientist	-11.411
▁66	-11.4112
▁aged	-11.4116
▁gleiche	-11.4116
ite	-11.4118
▁Juan	-11.4119
Range	-11.4121
▁lung	-11.4121
▁Sind	-11.4122
▁WARRANTIES	-11.4122
▁Wegen	-11.4123
▁Emma	-11.4125
▁actor	-11.4126
▁geschaffen	-11.4127
Net	-11.4127
mittel	-11.4127
life	-11.4129
▁proportion	-11.4129
▁trans	-11.4129
▁Fisch	-11.4133
▁alongside	-11.4134
▁roads	-11.4138
▁Gelegenheit	-11.4142
▁maximize	-11.4142
▁tip	-11.4142
▁register	-11.4143
▁Senior	-11.4143
▁engineers	-11.4145
▁Unit	-11.4146
ae	-11.4147
▁Eindruck	-11.4147
smöglichkeiten	-11.4148
▁Geschwindigkeit	-11.4149
▁Works	-11.4151
▁flexible	-11.4153
kind	-11.4154
▁3-	-11.4155
▁warning	-11.4157
▁programme	-11.4157
▁Stoff	-11.4159
▁Temple	-11.4163
▁Bord	-11.4163
▁applying	-11.4164
▁Square	-11.4166
stellen	-11.4167
▁Description	-11.4168
▁Week	-11.4169
▁bequem	-11.4171
Property	-11.4171
▁Viel	-11.4172
▁boost	-11.4175
anlagen	-11.4176
{2}}	-11.4178
▁Environment	-11.4178
Run	-11.4178
▁Figure	-11.4181
Hrsg	-11.4181
▁95	-11.4183
▁festival	-11.4183
▁Basketball	-11.4192
interface	-11.4192
▁verläuft	-11.4192
▁essentially	-11.4197
▁bound	-11.4198
▁keys	-11.4201
Controller	-11.4202
▁2006,	-11.4203
▁verpflichtet	-11.4207
math	-11.4208
▁Bureau	-11.4209
▁zerstört	-11.421
▁1922	-11.4211
▁biology	-11.4211
▁keiner	-11.4211
▁industries	-11.4211
▁styles	-11.4213
gesellschaftlich	-11.4213
▁grams	-11.4214
▁estimates	-11.4214
(3	-11.4215
▁fashion	-11.4216
▁Miller	-11.4217
▁Ryan	-11.4217
▁mice	-11.4219
(()	-11.4219
▁employment	-11.4219
Adresse	-11.4221
▁Short	-11.4224
▁trouble	-11.4224
▁relief	-11.4224
▁poem	-11.4225
ee	-11.4228
slice	-11.423
forschung	-11.4231
▁grundsätzlich	-11.4233
▁Amsterdam	-11.4233
Do	-11.4234
licenses	-11.4234
▁Infrastruktur	-11.4235
▁mehrfach	-11.4235
▁Watch	-11.4235
▁retired	-11.4237
▁banks	-11.4242
hi	-11.4244
▁(3)	-11.4244
▁engaged	-11.4244
▁focuses	-11.4245
▁erfüllen	-11.4248
▁wine	-11.4248
▁individuelle	-11.4251
▁substances	-11.4251
▁1907	-11.4251
heit	-11.4252
▁interview	-11.4252
▁standen	-11.4254
▁estate	-11.4256
rand	-11.4256
▁1890	-11.4258
▁öffentliche	-11.426
▁Ent	-11.4265
▁bike	-11.4265
▁Auswirkungen	-11.4265
▁Mississippi	-11.4268
▁Antonio	-11.4268
▁geprägt	-11.4269
how	-11.4271
▁Übersicht	-11.4274
."""	-11.4275
▁Gute	-11.4276
wie	-11.4277
ize	-11.4281
▁daraufhin	-11.4283
▁Scientists	-11.4289
▁lieben	-11.4289
▁contributed	-11.4291
!“	-11.4294
▁exception	-11.4296
▁Gottes	-11.4297
▁Store	-11.4299
itz	-11.4302
chi	-11.4303
▁maximal	-11.4303
▁Schweden	-11.4304
▁roughly	-11.4307
▁wire	-11.4308
▁frauen	-11.4308
▁Anlagen	-11.4312
▁Born	-11.4313
▁organisms	-11.4314
▁districts	-11.4316
▁Definition	-11.4316
▁tropical	-11.4316
▁informiert	-11.4318
▁gemäß	-11.432
change	-11.4321
▁matters	-11.4321
results	-11.4322
▁Historical	-11.4323
▁coverage	-11.4325
▁größer	-11.4325
▁Fair	-11.4328
▁früheren	-11.433
▁dynamic	-11.4331
▁victims	-11.4332
▁Mund	-11.4333
▁fühlen	-11.4333
▁province	-11.4335
war	-11.4335
▁1916	-11.4336
▁obesity	-11.4336
▁Simplifying	-11.4337
DC	-11.4339
▁painted	-11.434
▁acting	-11.4341
▁turning	-11.4342
▁digitalen	-11.4345
shaped	-11.4347
{9}	-11.4347
St	-11.4349
▁significance	-11.4351
▁bass	-11.4352
▁nötig	-11.4356
▁behaviors	-11.4357
versammlung	-11.4358
▁paintings	-11.4363
▁Jugendliche	-11.4363
▁strings	-11.4363
▁Body	-11.4364
▁Mannschaften	-11.4365
linewidth	-11.4366
▁Divide	-11.4366
druck	-11.4366
▁Aktien	-11.4367
▁Programme	-11.4367
▁1915	-11.4367
▁spezielle	-11.437
▁Small	-11.437
hr	-11.4372
▁renewable	-11.4373
jährigen	-11.4374
▁Tee	-11.4375
▁printed	-11.4375
▁defense	-11.4376
▁Third	-11.4379
▁Protection	-11.4381
▁excess	-11.4381
▁thread	-11.4383
▁listing	-11.4384
LICENSE	-11.4385
▁intervention	-11.4385
industrie	-11.4385
▁coastal	-11.4388
▁anbieten	-11.439
▁Saturday	-11.4391
▁illegal	-11.4392
▁Grün	-11.4394
▁chocolate	-11.4395
▁begonnen	-11.4397
wissenschaftler	-11.4397
▁copper	-11.4397
▁permissions	-11.4399
▁Lieblings	-11.4404
mean	-11.4405
▁entity	-11.4405
▁Trust	-11.4405
▁attend	-11.4406
▁suit	-11.4407
▁Änderungen	-11.4409
▁beauty	-11.441
resolve	-11.4412
▁2019,	-11.4413
usr	-11.4415
▁Tennessee	-11.4416
Entity	-11.4417
▁traveled	-11.4417
▁complicated	-11.4417
österreichischen	-11.4418
▁shop	-11.4419
▁widespread	-11.442
▁verkaufen	-11.442
ting	-11.4421
ish	-11.4422
▁organs	-11.4424
▁dargestellt	-11.4425
▁listen	-11.4426
▁Variante	-11.4427
▁influenced	-11.443
_5	-11.4431
▁Tri	-11.4433
mat	-11.4433
α	-11.4435
▁Section	-11.4437
▁bringing	-11.4438
▁nose	-11.4441
▁drivers	-11.4444
=1	-11.4445
▁Based	-11.4446
▁fort	-11.4448
flow	-11.4449
▁Chancen	-11.4451
▁marks	-11.4453
▁freien	-11.4455
cat	-11.4456
▁guidance	-11.4456
▁$15	-11.4459
{15}	-11.4462
▁Reisen	-11.4464
▁surfaces	-11.4464
▁processed	-11.4466
zug	-11.4467
▁stones	-11.4468
\]	-11.4472
▁reliable	-11.4473
▁liefern	-11.4473
▁Schnitt	-11.4475
script	-11.4476
▁plate	-11.4476
▁tons	-11.4477
▁accuracy	-11.4479
▁shell	-11.4479
и	-11.4481
▁maybe	-11.4484
▁Bachelor	-11.4485
▁3000	-11.4486
▁statements	-11.4486
▁somewhat	-11.4487
▁raus	-11.4489
▁Andere	-11.449
▁promoted	-11.4491
▁Sieger	-11.4492
▁covering	-11.4493
▁startete	-11.4494
verband	-11.4494
▁MD	-11.4494
▁plenty	-11.4495
Vector	-11.4495
fi	-11.4496
isierung	-11.4498
▁insulin	-11.4499
▁mild	-11.4499
▁fishing	-11.4502
▁lists	-11.4503
▁Furthermore	-11.4503
neq	-11.4503
▁Komponist	-11.4506
▁participation	-11.4506
▁seeking	-11.4508
▁loaves	-11.4512
▁eingerichtet	-11.4513
▁Licensed	-11.4514
▁Fernsehen	-11.4516
▁~	-11.4517
▁asthma	-11.4518
▁islands	-11.4519
▁Pi	-11.4519
pp	-11.452
▁pregnant	-11.4522
▁classic	-11.4522
▁vice	-11.4524
▁Stone	-11.4525
▁egg	-11.4526
▁Junior	-11.4526
▁Hockey	-11.4528
▁controls	-11.4536
▁measurements	-11.4538
gang	-11.4538
▁Brandenburg	-11.4539
▁graduate	-11.4539
▁Plant	-11.454
ised	-11.454
▁Mrs	-11.4549
▁Survey	-11.4549
▁Gleichzeitig	-11.4549
▁Hinter	-11.4552
▁carrying	-11.4552
▁Deutscher	-11.4552
▁reflection	-11.4553
matrix	-11.4557
▁Veränderungen	-11.4558
▁Governor	-11.4559
▁Culture	-11.4559
▁registered	-11.4561
▁dependent	-11.4567
▁heutige	-11.4567
▁VI	-11.4567
▁tables	-11.4568
sdorf	-11.4569
▁repair	-11.4572
▁breeding	-11.4572
▁proof	-11.4572
▁Keller	-11.4573
▁integrated	-11.4575
organisation	-11.4575
▁maintained	-11.4576
▁Poland	-11.4577
▁preparation	-11.4579
▁900	-11.4581
▁combat	-11.4582
▁faced	-11.4583
▁Ki	-11.4584
▁header	-11.4585
{3}{2}	-11.4587
▁weak	-11.4587
▁Mir	-11.4592
▁Urban	-11.4592
▁Nutzen	-11.4592
▁Thailand	-11.4595
master	-11.4595
ability	-11.4597
▁Memorial	-11.46
done	-11.4601
▁Großen	-11.4602
▁Blumen	-11.4603
▁Obama	-11.4604
▁Down	-11.4605
▁Barcelona	-11.4607
▁1/2	-11.4608
▁Policy	-11.4614
▁req	-11.4615
▁Wappen	-11.4616
▁Himmel	-11.4618
Sub	-11.4618
▁Behörden	-11.462
▁chemistry	-11.462
▁Fox	-11.4626
▁Gen	-11.4628
▁fix	-11.4631
▁Große	-11.4632
▁kostet	-11.4633
▁ourselves	-11.4634
derive	-11.4634
▁Spielzeit	-11.4636
▁breit	-11.4637
▁Farm	-11.4638
▁lebte	-11.4639
▁höhere	-11.464
▁happening	-11.464
▁entgegen	-11.4641
▁garantiert	-11.4642
▁soziale	-11.4643
▁Heim	-11.4643
▁poetry	-11.4644
▁4\	-11.4646
>;	-11.4655
▁conversation	-11.4656
▁Lieferung	-11.466
kraft	-11.4663
▁Trend	-11.4664
▁weist	-11.4665
▁laid	-11.4667
Tree	-11.4669
▁resolve	-11.467
Star	-11.4671
▁literary	-11.4671
Schema	-11.4674
▁lief	-11.4677
▁2012.	-11.4678
being	-11.4681
▁hängt	-11.4683
Debug	-11.4684
▁Swiss	-11.4685
ek	-11.4685
▁Direktor	-11.4686
▁Freunden	-11.4687
▁mixture	-11.4688
▁whatever	-11.4689
where	-11.4689
▁collections	-11.4691
▁stickers	-11.4691
▁Ice	-11.4692
▁rely	-11.4692
▁disaster	-11.4692
▁cleaning	-11.4694
column	-11.4694
Icon	-11.4698
▁usual	-11.4698
▁Diego	-11.4701
▁Philosophie	-11.4701
▁flying	-11.4702
ops	-11.4707
▁weapons	-11.4709
▁ON	-11.4709
▁modulo	-11.471
▁nieder	-11.471
icon	-11.4713
br	-11.4713
▁Having	-11.4713
try	-11.4714
▁criminal	-11.4716
▁verschiedener	-11.4716
▁Sprachen	-11.4721
▁Trans	-11.4721
bedingungen	-11.4721
▁mechanical	-11.4723
▁Writing	-11.4724
▁participated	-11.4726
▁Airport	-11.4726
echo	-11.4727
▁digitale	-11.4736
lager	-11.4736
don	-11.4738
▁knows	-11.4739
▁wodurch	-11.474
27	-11.4742
▁Events	-11.4744
kirche	-11.4746
▁browser	-11.4746
▁treten	-11.4747
▁schauen	-11.4751
▁weitgehend	-11.4752
▁Compute	-11.4752
▁möglichen	-11.4753
▁USB	-11.4754
▁beliefs	-11.4756
▁wollten	-11.4757
car	-11.4758
▁2010.	-11.476
▁3$.	-11.476
▁19,	-11.4761
cdots	-11.4761
▁Somit	-11.4763
double	-11.4764
▁altitude	-11.4765
▁Lucas	-11.4765
▁monthly	-11.4767
}/	-11.4769
▁lights	-11.4771
▁pop	-11.4772
▁reaches	-11.4773
-2.0	-11.4774
▁cluster	-11.4774
▁heritage	-11.4777
ans	-11.4779
▁Regen	-11.4779
▁Schlaf	-11.4782
▁Moreover	-11.4786
▁bigger	-11.4786
Port	-11.4787
▁numerical	-11.4787
45	-11.4789
▁flour	-11.4792
addr	-11.4794
▁writes	-11.4795
▁zunehmend	-11.4795
▁acute	-11.4795
▁1931	-11.4797
▁Alzheimer	-11.4797
▁Jungen	-11.4798
politik	-11.48
österreichischer	-11.48
▁hierbei	-11.4802
ah	-11.4802
▁charged	-11.4803
▁sicherlich	-11.4804
)$:	-11.4804
▁Win	-11.4805
▁(10	-11.4811
▁sought	-11.4812
▁trigger	-11.4813
▁heavily	-11.4813
▁Parteien	-11.4814
▁spirit	-11.4815
▁Five	-11.4816
▁wären	-11.4816
ft	-11.4816
▁hinein	-11.482
▁interactions	-11.482
▁burning	-11.4821
When	-11.4823
▁53	-11.4824
▁exhibition	-11.4827
▁$2$	-11.4828
▁investigation	-11.4828
▁$20	-11.4829
▁mine	-11.4829
Height	-11.4829
▁Mass	-11.4831
ata	-11.4833
▁Tennis	-11.4833
Window	-11.4834
▁Lo	-11.4835
▁23,	-11.4836
De	-11.4838
▁Alaska	-11.4838
▁integral	-11.484
▁extend	-11.4842
▁spectrum	-11.4843
▁consume	-11.4844
▁accident	-11.4845
▁prison	-11.4845
OK	-11.485
▁dropped	-11.485
rt	-11.4851
ica	-11.4852
▁habt	-11.4855
▁Methode	-11.4855
▁trend	-11.4857
▁ignore	-11.486
▁council	-11.4861
▁Verständnis	-11.4862
amt	-11.4864
▁Muslim	-11.4866
JSON	-11.4867
▁praktisch	-11.4867
track	-11.4868
3)	-11.4868
▁ill	-11.4871
Vec	-11.4874
▁Future	-11.4874
▁Chat	-11.4874
two	-11.4875
▁Elisabeth	-11.4876
▁holes	-11.4877
▁Ehren	-11.4877
▁expatriate	-11.4878
▁pull	-11.4879
lt	-11.4879
▁organ	-11.4881
▁Salzburg	-11.4881
02	-11.4883
▁Kurt	-11.4884
▁galt	-11.4884
lo	-11.4884
lauf	-11.4887
▁careful	-11.4887
▁begleitet	-11.4888
▁Rede	-11.489
pa	-11.489
▁removal	-11.4891
▁marketing	-11.4891
amerikanischen	-11.4892
▁educated	-11.4892
▁occupied	-11.4895
▁sparen	-11.4896
▁Chi	-11.4898
▁Unternehmer	-11.4899
▁WITHOUT	-11.49
▁recommendations	-11.4902
▁schnelle	-11.4903
▁stärker	-11.4905
▁Economic	-11.4907
▁Highway	-11.4911
▁-4	-11.4911
▁bc	-11.4913
▁Motto	-11.4918
▁Pierre	-11.4919
▁proved	-11.4924
▁Trade	-11.4924
▁Nieder	-11.4925
▁Swedish	-11.4927
▁Dark	-11.4927
▁Collection	-11.4928
stack	-11.4928
▁Heiligen	-11.4929
▁Aufstieg	-11.4929
▁measuring	-11.4931
▁demonstrated	-11.4932
Bahn	-11.4934
▁Unlike	-11.4935
▁preventing	-11.4936
▁racial	-11.4936
▁Captain	-11.4937
▁hardware	-11.4937
▁Meisterschaft	-11.4938
▁Gang	-11.4938
▁folgten	-11.494
als	-11.4941
display	-11.4941
▁Symbol	-11.4941
▁indicated	-11.4942
▁Milch	-11.4942
▁requirement	-11.4945
▁mathematical	-11.4946
document	-11.4947
▁individuellen	-11.4947
▁Brian	-11.4948
▁strongly	-11.4948
Column	-11.495
▁Did	-11.4952
▁sitting	-11.4954
▁anhand	-11.4954
▁2011.	-11.4955
▁Remember	-11.4955
ram	-11.4956
▁extract	-11.4956
▁Ray	-11.4956
▁File	-11.4957
▁PM	-11.496
▁ensuring	-11.496
▁orders	-11.4962
▁complexity	-11.4962
ken	-11.4964
▁unusual	-11.4965
▁assets	-11.4965
{9	-11.4966
▁printing	-11.4966
ierte	-11.4967
)^3	-11.4967
▁ending	-11.4968
▁Horn	-11.4968
▁1909	-11.4969
▁farming	-11.4971
{6	-11.4973
halle	-11.4974
▁Tuesday	-11.4977
▁Beziehungen	-11.4981
▁verbreitet	-11.4982
▁tissues	-11.4982
▁forming	-11.4983
▁Lab	-11.4985
▁Kiel	-11.4987
are	-11.4988
▁Aufmerksamkeit	-11.4988
▁Mainz	-11.4989
▁Republican	-11.4992
▁Diabetes	-11.4992
▁Province	-11.4992
▁Newsletter	-11.4994
▁danger	-11.4994
▁moisture	-11.4995
▁heating	-11.4996
▁Grade	-11.4996
▁aufgebaut	-11.4996
▁dividing	-11.4997
"],	-11.4999
▁Content	-11.5
▁Herbert	-11.5002
▁Unless	-11.5003
▁races	-11.5003
▁Current	-11.5003
▁Möbel	-11.5004
▁officially	-11.5006
▁Sänger	-11.5006
▁listening	-11.5006
▁ride	-11.5008
▁Television	-11.5009
lines	-11.5009
▁profitieren	-11.501
▁Biography	-11.5012
▁innovation	-11.5013
▁einfachen	-11.5013
liste	-11.5014
▁geöffnet	-11.5014
google	-11.5015
▁Wednesday	-11.5015
kg	-11.5016
▁Geographie	-11.5017
▁Blood	-11.5018
▁ctx	-11.5018
▁evening	-11.5019
[0],	-11.502
▁focusing	-11.5021
toString	-11.5021
▁towns	-11.5022
tar	-11.5024
▁loved	-11.5024
global	-11.5025
mar	-11.5027
▁Anfrage	-11.5028
▁yards	-11.5029
35	-11.503
▁2013.	-11.5031
▁$0	-11.5031
-5	-11.5035
▁Gründe	-11.5036
Change	-11.5037
▁FOR	-11.5038
▁velocity	-11.5038
Offset	-11.5039
Row	-11.504
▁rose	-11.504
unit	-11.5043
player	-11.5047
führung	-11.5049
dot	-11.505
▁amerikanischen	-11.5051
names	-11.5052
▁combine	-11.5053
▁Charlie	-11.5055
▁21,	-11.5055
▁Player	-11.5056
▁Muster	-11.5057
▁Beispiele	-11.5058
▁sick	-11.5059
▁Versuch	-11.5059
▁Ersatz	-11.5059
▁gesucht	-11.5064
▁Example	-11.5065
▁Ni	-11.5067
▁(6	-11.5069
▁57	-11.5069
^{-1}(	-11.5072
▁Su	-11.5072
▁sweet	-11.5073
▁erfüllt	-11.5075
▁pilot	-11.5077
spec	-11.5079
▁Auge	-11.5079
▁stronger	-11.508
Westfalen	-11.5083
▁varieties	-11.5085
▁58	-11.5088
▁betrieben	-11.5088
▁2020,	-11.5088
ität	-11.5089
verwaltung	-11.5089
▁britische	-11.5089
]:	-11.509
▁Clark	-11.5091
ai	-11.5091
▁vorstellen	-11.5091
▁Member	-11.5092
che	-11.5092
à	-11.5093
▁earliest	-11.5094
▁Lily	-11.5094
▁Hollywood	-11.5095
tags	-11.5096
▁physician	-11.5097
station	-11.5098
▁Pferde	-11.5099
▁Adresse	-11.51
▁Mail	-11.51
Innen	-11.5101
funktion	-11.5102
▁associate	-11.5102
▁außen	-11.5104
jpg	-11.5105
▁anzeigen	-11.5105
▁plt	-11.5105
fach	-11.5106
▁treating	-11.5106
▁22,	-11.5106
▁gedacht	-11.5107
▁Bewohner	-11.5108
▁computing	-11.511
▁descent	-11.5112
ey	-11.5114
▁MP	-11.5115
▁Uni	-11.5116
▁Zoll	-11.5118
ren	-11.5118
▁Apps	-11.5121
▁Hart	-11.5122
▁mechanisms	-11.5123
▁Bishop	-11.5123
▁Leder	-11.5125
▁Markus	-11.5125
▁Jane	-11.5126
▁Tests	-11.5127
inline	-11.513
▁Landschaft	-11.513
▁episodes	-11.5131
▁Grünen	-11.5131
▁payment	-11.5133
5^\	-11.5134
iger	-11.5134
▁zufolge	-11.5134
▁übrigens	-11.5135
▁texts	-11.5135
▁Search	-11.5136
▁1913	-11.5137
▁Wi	-11.5139
▁2015.	-11.514
▁Greece	-11.5141
▁wirst	-11.5142
▁klicken	-11.5143
kosten	-11.5143
▁25,	-11.5146
▁linken	-11.5146
▁temporary	-11.5147
▁Elemente	-11.5147
Mock	-11.5148
garten	-11.5148
▁smooth	-11.5148
▁offiziell	-11.5149
▁Ausnahme	-11.5149
▁viruses	-11.5151
▁removing	-11.5152
gas	-11.5152
▁worker	-11.5153
leistung	-11.5159
▁1200	-11.5161
▁eingeführt	-11.5161
▁destruction	-11.5164
▁constantly	-11.5165
▁1.0	-11.5171
▁Earl	-11.5171
▁Analysis	-11.5171
▁leichter	-11.5173
bei	-11.5174
EN	-11.5174
▁Betreuung	-11.5175
▁Poker	-11.5178
▁anywhere	-11.5179
▁Male	-11.518
ins	-11.5183
▁Abschnitt	-11.5185
arten	-11.5186
gebiet	-11.5186
▁Century	-11.5186
depth	-11.5186
▁kostenlosen	-11.5186
sel	-11.5191
other	-11.5192
▁Netherlands	-11.5192
▁technische	-11.5194
▁Banken	-11.5194
▁fördern	-11.5196
pkg	-11.5197
▁Merkur	-11.5197
▁encouraged	-11.5198
▁opposed	-11.5198
▁öffentlich	-11.52
▁Tu	-11.5201
Err	-11.5201
▁Brücke	-11.5202
▁Ca	-11.5202
▁logic	-11.5202
▁unmittelbar	-11.5204
▁2014.	-11.5204
Equal	-11.5205
▁niemand	-11.5207
▁700	-11.5208
▁Kommentare	-11.5209
Call	-11.521
▁begeistert	-11.5211
▁unterscheiden	-11.5214
▁settled	-11.5215
▁sprach	-11.5215
ino	-11.5216
▁sichern	-11.5216
▁cooking	-11.5217
▁Madrid	-11.5218
▁winner	-11.5219
▁baseball	-11.5219
▁stopped	-11.522
▁Figur	-11.5223
▁Abstand	-11.5225
ola	-11.5226
▁vocabulary	-11.5226
CO	-11.5226
▁Vertrauen	-11.5231
▁Lu	-11.5237
▁130	-11.5237
▁identifying	-11.524
26	-11.5241
▁Chemie	-11.5243
▁charges	-11.5244
▁examination	-11.5246
▁passenden	-11.5246
Account	-11.5246
AP	-11.5248
parser	-11.5248
»,	-11.5249
▁Medal	-11.525
▁2}	-11.5251
▁wheel	-11.5252
▁interpretation	-11.5252
▁references	-11.5252
▁bars	-11.5252
▁zahlen	-11.5252
▁2016.	-11.5254
▁Hence	-11.5257
video	-11.5258
▁Indians	-11.526
▁formulas	-11.5261
▁$9	-11.5261
▁Instagram	-11.5262
▁Innovation	-11.5263
ī	-11.5267
gamma	-11.5268
▁restrictions	-11.5268
▁Douglas	-11.5269
▁offenen	-11.5269
▁orbit	-11.527
▁Factor	-11.5271
▁Qualifikation	-11.5273
▁Produktions	-11.5274
▁buying	-11.5276
▁Sweden	-11.5276
strom	-11.5277
▁wearing	-11.5277
horn	-11.5278
air	-11.528
exit	-11.5281
▁equilateral	-11.5281
▁molecular	-11.5283
▁bezahlen	-11.5287
Write	-11.529
nt	-11.529
▁einiger	-11.5291
▁östlich	-11.5295
Frame	-11.5297
▁verletzt	-11.53
▁mention	-11.5301
▁Kur	-11.5301
▁erfolgen	-11.5302
▁Eric	-11.5303
▁candidates	-11.5305
big	-11.5306
▁französischer	-11.531
png	-11.531
▁Jacob	-11.5311
▁Han	-11.5313
▁Township	-11.5314
▁regardless	-11.5314
kultur	-11.5315
▁Vogel	-11.5321
▁bottle	-11.5323
▁einschließlich	-11.5323
▁Vorbereitung	-11.5324
▁getroffen	-11.5328
▁acres	-11.533
▁Datum	-11.5332
▁horses	-11.5334
▁Laboratory	-11.5335
▁welchem	-11.5336
▁Heidelberg	-11.5337
▁Article	-11.534
▁Geburt	-11.5341
▁IF	-11.5342
▁1860	-11.5342
▁plötzlich	-11.5343
css	-11.5343
▁worst	-11.5346
▁clock	-11.5346
▁Antrag	-11.5347
▁Magazine	-11.5349
▁Regionen	-11.5349
▁Kevin	-11.535
ps	-11.5351
▁Australien	-11.5351
md	-11.5353
▁passage	-11.5353
▁Index	-11.5354
▁src	-11.5355
Target	-11.5357
▁meta	-11.5357
▁68	-11.5358
▁Frühstück	-11.5359
▁minimal	-11.536
▁athletes	-11.5361
▁Fähigkeiten	-11.5361
▁CEO	-11.5363
▁Voll	-11.5365
points	-11.5366
▁Bildungs	-11.5368
▁Städten	-11.5369
▁predict	-11.537
ary	-11.537
▁Jugendlichen	-11.5371
▁angezeigt	-11.5372
▁1908	-11.5372
card	-11.5375
▁deeper	-11.5375
▁hockey	-11.5376
▁Alten	-11.5377
▁Jagd	-11.5377
▁Oklahoma	-11.5378
Show	-11.5378
▁theories	-11.5379
▁Werbe	-11.5379
(0	-11.5379
▁Juden	-11.538
domain	-11.538
▁interactive	-11.538
▁Format	-11.5381
▁gun	-11.5383
children	-11.5384
was	-11.5384
▁respiratory	-11.5386
▁Umfeld	-11.5386
▁2(	-11.5386
▁detection	-11.5387
▁Machine	-11.5388
▁Hamilton	-11.5388
▁elf	-11.5391
▁waiting	-11.5391
▁channels	-11.5392
▁Schließlich	-11.5398
▁Ethan	-11.5399
▁contributions	-11.5401
Ö	-11.5403
▁Gulf	-11.5405
▁presents	-11.5405
▁Results	-11.5406
▁Census	-11.5407
▁Daily	-11.5408
▁Gemeinsam	-11.5409
▁fragen	-11.541
How	-11.541
▁fairly	-11.541
▁Renaissance	-11.5412
▁schweren	-11.5412
**	-11.5412
▁Türkei	-11.5413
control	-11.5415
kin	-11.5415
▁campus	-11.5415
Settings	-11.5415
▁Bestandteil	-11.5416
▁scheme	-11.5418
▁Boy	-11.5418
▁OS	-11.542
NO	-11.5421
▁84	-11.5422
▁observation	-11.5424
▁legt	-11.5424
▁spots	-11.5424
▁contribution	-11.5426
▁gestern	-11.5428
▁Micro	-11.5428
▁graduated	-11.5431
▁Leistungs	-11.5431
▁Matt	-11.5432
▁gekauft	-11.5433
▁Verhältnis	-11.5434
▁Nachricht	-11.5435
▁'/	-11.5435
_2$	-11.5438
Errorf	-11.5441
▁amazing	-11.5442
▁DE	-11.5443
▁Innen	-11.5445
_1,	-11.545
▁vierten	-11.5451
▁KIND	-11.5452
▁Testament	-11.5454
FILE	-11.5454
▁weekly	-11.5455
Api	-11.5457
▁decreased	-11.5458
▁Girls	-11.5458
▁grant	-11.5458
[2]	-11.5459
▁adequate	-11.5461
import	-11.5462
▁2005,	-11.5462
Card	-11.5463
tf	-11.5464
▁Klavier	-11.5465
score	-11.5466
ive	-11.5469
▁Access	-11.5471
edge	-11.5473
▁pack	-11.5474
▁20,	-11.5474
▁loan	-11.5475
▁DEFAULT	-11.5475
64,	-11.5479
▁Core	-11.548
ERROR	-11.5481
▁containers	-11.5482
▁glucose	-11.5484
▁liters	-11.5487
▁Formel	-11.5489
▁Thursday	-11.5489
labels	-11.549
prefix	-11.549
See	-11.549
nodes	-11.5492
Device	-11.5495
▁chose	-11.5498
▁bytes	-11.5499
ls	-11.5501
▁Ask	-11.5501
▁bewegen	-11.5503
▁stick	-11.5504
▁proven	-11.5505
▁rarely	-11.5507
blue	-11.5507
▁vorne	-11.5508
▁threats	-11.5509
▁halt	-11.551
▁priority	-11.5511
full	-11.5511
für	-11.5511
▁Label	-11.5512
bot	-11.5515
▁Ruf	-11.5515
▁1850	-11.5516
▁$7	-11.5517
▁Kentucky	-11.5519
▁105	-11.552
▁Profil	-11.552
▁lohnt	-11.552
▁constructor	-11.5521
▁Wissenschaftler	-11.5521
media	-11.5522
▁drought	-11.5523
▁Flächen	-11.5523
▁Side	-11.5524
▁Freundin	-11.5527
▁Marc	-11.5527
▁Daneben	-11.553
Verlag	-11.5531
Hash	-11.5532
▁Eisen	-11.5532
▁grain	-11.5533
minute	-11.5533
▁Avenue	-11.5536
▁Erlebnis	-11.5537
-12	-11.5538
▁++	-11.5539
▁8:	-11.554
iv	-11.5543
▁27,	-11.5543
▁comfortable	-11.5545
▁managing	-11.5546
▁westlich	-11.5546
▁offenbar	-11.5547
▁symbols	-11.5547
▁Rückkehr	-11.5549
▁Oberfläche	-11.5549
ú	-11.5552
password	-11.5553
tes	-11.5555
▁equality	-11.5557
▁Khan	-11.556
у	-11.5561
▁Bewerbung	-11.5562
▁essen	-11.5562
▁designated	-11.5563
▁entries	-11.5565
▁Entertainment	-11.5566
▁Abenteuer	-11.5566
▁Anwendungen	-11.5569
▁partial	-11.557
leben	-11.5571
▁vessel	-11.5572
▁''	-11.5574
▁Again	-11.5575
lose	-11.5578
hilfe	-11.5579
▁detected	-11.5582
teil	-11.5583
▁Police	-11.5583
▁supplements	-11.5584
▁Bereiche	-11.5584
▁vitamins	-11.5586
[3]	-11.5588
wirtschaft	-11.5588
▁Szene	-11.5588
▁passen	-11.5589
town	-11.559
▁Metal	-11.559
▁giant	-11.5591
▁Eigen	-11.5591
▁Regisseur	-11.5592
foot	-11.5593
▁Physical	-11.5595
▁nennt	-11.5595
▁Premium	-11.5596
▁Hard	-11.5597
▁screening	-11.5597
▁quantity	-11.5599
44	-11.56
▁Jordan	-11.5607
▁erhöhen	-11.5609
{20}	-11.5609
▁concluded	-11.5613
!!	-11.5615
▁Ausbau	-11.5617
▁28,	-11.5618
▁advantages	-11.5619
","	-11.5619
▁swimming	-11.5621
▁peer	-11.5621
▁quantum	-11.5623
verfahren	-11.5625
va	-11.5625
▁watching	-11.5628
▁consumed	-11.5629
▁melden	-11.563
lichen	-11.5631
▁panels	-11.5632
profile	-11.5634
▁erbaut	-11.5634
▁vec	-11.5634
{3}}	-11.5635
▁Howard	-11.5635
▁Egal	-11.5636
▁Silver	-11.5637
▁Zwar	-11.5637
▁gelegt	-11.5638
ort	-11.5639
git	-11.5643
▁zweimal	-11.5645
▁mood	-11.5645
▁particle	-11.5647
▁Kabel	-11.5648
▁Auflösung	-11.5649
ice	-11.5652
▁qualified	-11.5652
sec	-11.5653
▁introduce	-11.5654
▁Optional	-11.5654
▁Examples	-11.5655
▁Mehrheit	-11.5655
▁Far	-11.5657
cloud	-11.5658
none	-11.5658
grad	-11.5658
▁Diskussion	-11.566
▁Kostenlos	-11.566
blatt	-11.5661
▁drinks	-11.5661
▁contents	-11.5661
▁compound	-11.5666
punkt	-11.5668
▁nitrogen	-11.5668
▁Channel	-11.5668
▁Ausdruck	-11.5669
▁Frieden	-11.567
32)	-11.567
▁broadcast	-11.567
▁batteries	-11.5671
▁isinstance	-11.5671
▁oberen	-11.5673
▁healing	-11.5673
▁gradually	-11.5674
▁killing	-11.5674
▁Treatment	-11.5674
▁04	-11.5675
mehr	-11.5676
▁characteristic	-11.5677
▁Strategie	-11.5678
▁versus	-11.5681
▁returning	-11.5684
▁wuchs	-11.5687
▁verlieren	-11.5689
museum	-11.5689
errors	-11.5689
▁25%	-11.5689
▁öffnen	-11.5689
▁judge	-11.569
▁Rollen	-11.5692
▁Falle	-11.5692
hpp	-11.5694
▁1905	-11.5695
▁substantial	-11.5695
▁phrase	-11.5695
▁Mu	-11.5698
Search	-11.5699
▁Adolf	-11.5705
▁Louisiana	-11.5706
!)	-11.5708
TEST	-11.5708
Ä	-11.5711
▁Versicherungs	-11.5712
▁slot	-11.5715
inch	-11.5716
▁Krankheit	-11.5717
▁2017.	-11.5718
online	-11.5719
▁62	-11.572
▁Rosen	-11.572
▁doubt	-11.5721
▁Iron	-11.5722
▁Stamm	-11.5724
▁conversion	-11.5727
▁höheren	-11.5727
▁complications	-11.5728
▁Alabama	-11.5729
▁UV	-11.5731
03	-11.5731
▁denke	-11.5732
▁Within	-11.5735
▁excessive	-11.5737
▁diagram	-11.5738
▁implications	-11.5739
▁italienischen	-11.5741
▁losses	-11.5742
▁Samsung	-11.5742
▁manufacturers	-11.5742
▁Vielfalt	-11.5742
▁nervous	-11.5743
▁finds	-11.5743
▁consisting	-11.5743
▁Voraussetzungen	-11.5744
sur	-11.5746
▁Detail	-11.5746
▁Signal	-11.5749
▁sizes	-11.5753
Gruppe	-11.5753
▁awards	-11.5753
▁musicians	-11.5753
▁Klassen	-11.5753
▁Wird	-11.5754
▁representative	-11.5754
▁Geschenk	-11.5754
▁Lieder	-11.5754
▁Challenge	-11.5755
▁breath	-11.5756
csv	-11.5758
▁Fernseh	-11.5758
▁Laden	-11.5758
wand	-11.5759
▁Fish	-11.576
▁Hände	-11.5761
▁Chile	-11.5761
▁Zugriff	-11.5761
ella	-11.5765
▁Nation	-11.5765
▁Alpen	-11.5766
▁Arab	-11.5766
▁lösen	-11.5768
▁Bauern	-11.577
Args	-11.577
▁Ferdinand	-11.5771
utf	-11.5772
du	-11.5772
▁optional	-11.5772
▁Vereine	-11.5772
▁Nov	-11.5773
▁trace	-11.5776
▁wins	-11.5777
▁transformation	-11.5778
▁sentences	-11.5779
account	-11.5779
UI	-11.5779
Channel	-11.5779
▁URL	-11.5781
▁Nazi	-11.5782
▁4-	-11.5782
▁Manchester	-11.5784
▁Einfach	-11.5785
cup	-11.5786
cd	-11.5787
dl	-11.579
▁Dictionary	-11.5792
▁Jürgen	-11.5792
▁Donald	-11.5794
▁bottles	-11.5795
▁Cat	-11.5797
hl	-11.5797
▁researcher	-11.5799
define	-11.58
▁[/	-11.58
▁classified	-11.5803
▁Philip	-11.5803
▁poet	-11.5805
▁difficulties	-11.5809
▁sequences	-11.581
ano	-11.5812
▁zuständig	-11.5812
▁Schleswig	-11.5813
▁angegeben	-11.5814
▁notable	-11.5816
▁präsentieren	-11.5817
▁enemy	-11.5818
▁30%	-11.582
▁beziehungsweise	-11.582
▁Youth	-11.5822
vmatrix	-11.5825
▁Gebrauch	-11.5826
▁Blau	-11.5828
{2\	-11.583
▁numpy	-11.583
fill	-11.583
▁Prevention	-11.583
{13}	-11.5834
route	-11.5835
▁Sollte	-11.5836
▁soweit	-11.5836
▁Schaden	-11.5837
Utils	-11.5837
person	-11.5837
▁receives	-11.5839
▁pandemic	-11.584
1-10	-11.584
▁Matthias	-11.5841
▁Schools	-11.5841
▁moderate	-11.5845
▁experimental	-11.5845
norm	-11.5846
▁Ann	-11.5846
▁protocol	-11.5846
▁HTML	-11.5848
▁learners	-11.5849
php	-11.585
▁abstract	-11.5851
)|	-11.5853
clear	-11.5854
▁Berufs	-11.5856
▁Ritter	-11.5857
▁driven	-11.5861
▁russischen	-11.5861
▁distances	-11.5862
▁reveal	-11.5862
▁Grab	-11.5865
▁celebrated	-11.5866
▁fabric	-11.5866
{8	-11.5866
▁Julia	-11.5867
▁agents	-11.5871
▁englischen	-11.5872
▁übernimmt	-11.5873
▁clients	-11.5874
▁Afghanistan	-11.5882
_{10}	-11.5882
▁eignet	-11.5883
Template	-11.5883
▁Zunächst	-11.5884
Post	-11.5885
▁imagine	-11.5886
▁effectiveness	-11.5886
▁Arctic	-11.5886
▁meals	-11.5886
▁betrachtet	-11.5888
▁Ku	-11.5888
▁Right	-11.5888
▁relate	-11.5888
▁Nachwuchs	-11.5888
▁Anlass	-11.5889
valid	-11.5891
▁pump	-11.5892
▁Tech	-11.5893
▁Söhne	-11.5893
plot	-11.5893
sync	-11.5895
Delete	-11.5895
AE	-11.5897
▁bronze	-11.5897
▁Wünsche	-11.5898
▁ownership	-11.5901
▁Bernhard	-11.5902
▁founder	-11.5902
▁Vision	-11.5903
^2$,	-11.5904
Obj	-11.5905
▁Orgel	-11.5907
▁Schrift	-11.5911
▁Museums	-11.5914
▁interessiert	-11.5915
▁Breite	-11.5917
▁sensors	-11.5918
toEqual	-11.5921
GM	-11.5923
!!!	-11.5923
▁Eisenbahn	-11.5923
move	-11.5925
OS	-11.5925
▁partnership	-11.5926
▁Profi	-11.5926
eck	-11.5927
Num	-11.5927
▁Bedürfnisse	-11.5929
▁supposed	-11.5929
▁providers	-11.593
▁literacy	-11.5933
dem	-11.5933
▁Lern	-11.5933
dc	-11.5933
▁Anthony	-11.5935
▁throws	-11.5937
▁colored	-11.5937
▁Zuhause	-11.5937
▁viewed	-11.5937
▁1880	-11.5938
▁startet	-11.5938
33	-11.5938
▁Vorstellung	-11.5938
▁versehen	-11.5941
West	-11.5941
▁revolution	-11.5943
▁Gemüse	-11.5944
▁2009.	-11.5945
▁Gutschein	-11.5945
nen	-11.5947
▁requests	-11.5948
▁Installation	-11.5948
▁Musical	-11.5949
▁einzigen	-11.5952
▁spends	-11.5953
▁Haben	-11.5953
▁sunlight	-11.5955
proto	-11.5955
EMAIL	-11.5956
▁lautet	-11.5957
▁Wunder	-11.5959
▁margin	-11.5962
▁flood	-11.5963
▁beendete	-11.5963
▁Political	-11.5965
▁interact	-11.5967
▁phenomenon	-11.5968
pe	-11.5975
PDF	-11.5975
▁Friedhof	-11.5977
▁conclude	-11.5977
▁Neues	-11.598
informationen	-11.5981
▁Parlament	-11.5981
▁tobacco	-11.5981
▁displayed	-11.5982
▁verliehen	-11.5985
▁Print	-11.5985
▁honey	-11.5987
▁Kunststoff	-11.5987
▁precise	-11.599
▁attributes	-11.599
▁steigt	-11.5992
▁picked	-11.5993
▁nice	-11.5993
▁Wildlife	-11.5993
▁medal	-11.5994
▁CA	-11.5996
▁JSON	-11.5996
{25}	-11.5998
▁bisherigen	-11.5999
▁ft	-11.5999
▁26,	-11.6006
▁Ebenso	-11.6006
▁assembly	-11.6007
▁Elektro	-11.6007
He	-11.6007
▁59	-11.6008
▁eng	-11.6008
▁Gewinne	-11.6009
▁Being	-11.601
▁pH	-11.6013
▁websites	-11.6015
▁Pool	-11.6015
network	-11.6017
Nr	-11.6019
after	-11.6019
Title	-11.6019
▁kleinere	-11.6019
▁drauf	-11.602
features	-11.602
▁Durchmesser	-11.602
▁Königreich	-11.6021
section	-11.6021
▁Regiment	-11.6024
Connection	-11.6028
1:	-11.603
▁travels	-11.6031
▁betrug	-11.6033
4,	-11.6035
▁1)^2	-11.6035
▁arc	-11.6035
leitung	-11.6036
▁Eva	-11.6036
▁favorable	-11.6037
▁intense	-11.6039
▁hormone	-11.604
▁equals	-11.604
▁experiencing	-11.604
▁separately	-11.604
▁stability	-11.6043
▁Fazit	-11.6044
▁Serien	-11.6045
▁67	-11.6047
▁scholars	-11.6047
▁diagonals	-11.6049
▁falling	-11.6049
GL	-11.605
stock	-11.605
ien	-11.605
▁ergibt	-11.6051
▁stack	-11.6053
▁wirkte	-11.6055
rc	-11.6055
prop	-11.6056
Video	-11.6064
Order	-11.6064
▁umgesetzt	-11.6065
▁NO	-11.6066
▁Val	-11.6066
▁dataset	-11.6068
▁Alan	-11.6069
▁adapted	-11.6069
▁Merkmale	-11.6069
National	-11.6071
Spec	-11.6072
▁cream	-11.6072
▁Moskau	-11.6074
▁gehörten	-11.6075
▁2000,	-11.6077
▁ecosystem	-11.6077
▁sheep	-11.6077
▁350	-11.608
▁initiative	-11.608
▁discrimination	-11.608
▁bees	-11.6081
▁möchtest	-11.6081
)?;	-11.6081
Session	-11.6083
▁Rechnung	-11.6083
normal	-11.6083
events	-11.6085
▁distribute	-11.6085
▁1903	-11.6086
▁hochwertige	-11.6086
▁Mittelpunkt	-11.6092
▁preserve	-11.6093
▁boundary	-11.6093
ent	-11.6096
▁Agriculture	-11.6098
▁metres	-11.61
▁mögliche	-11.61
background	-11.6101
Go	-11.6102
▁evolved	-11.6102
▁Architekten	-11.6103
▁posts	-11.6105
▁Wachstum	-11.6105
▁Much	-11.6106
▁verify	-11.6112
▁simplifies	-11.6113
▁"./	-11.6113
▁fee	-11.6114
▁Ken	-11.6115
▁erzielen	-11.6116
karte	-11.6118
▁Mont	-11.6118
▁'<	-11.6119
▁brothers	-11.6119
handler	-11.612
▁sessions	-11.6121
arm	-11.6121
ru	-11.6123
▁Thompson	-11.6124
▁Stars	-11.6125
spielen	-11.6127
▁universal	-11.6128
▁[];	-11.6128
▁Site	-11.6129
▁mineral	-11.613
▁Nordrhein	-11.6135
wechsel	-11.6136
▁Schuhe	-11.6138
▁grades	-11.614
▁mountains	-11.6141
▁gefragt	-11.6142
▁sensor	-11.6144
mo	-11.6144
▁1906	-11.6145
▁mile	-11.6145
▁delay	-11.6148
▁exhibit	-11.6148
▁entrance	-11.6149
▁ergeben	-11.6149
▁handling	-11.615
▁closest	-11.615
▁Christopher	-11.6151
▁Mitarbeitern	-11.6151
▁rid	-11.6151
▁protecting	-11.6154
▁saving	-11.6155
▁verbindet	-11.6155
▁fought	-11.6157
netz	-11.6157
▁Si	-11.6158
▁dauert	-11.6158
IN	-11.6159
▁Lehr	-11.6159
▁Turkey	-11.616
▁vergeben	-11.616
▁Contact	-11.6161
II	-11.6161
▁eigener	-11.6162
▁Convention	-11.6164
▁$5$	-11.6165
▁Baron	-11.6165
▁interessant	-11.6166
▁überzeugen	-11.6166
▁derivative	-11.6167
▁Nein	-11.6168
▁2^2	-11.6172
▁Spiegel	-11.6173
▁Pfarrer	-11.6174
▁Mitgliedern	-11.6175
▁longest	-11.6176
cl	-11.6177
▁hence	-11.6179
▁erfolgreichen	-11.6179
▁Con	-11.618
▁ethnic	-11.618
▁Gerhard	-11.6181
1/	-11.6182
▁institution	-11.6182
▁Connecticut	-11.6183
▁entering	-11.6184
▁echt	-11.6184
▁ungefähr	-11.6184
Bytes	-11.6186
▁Afrika	-11.6186
▁Roger	-11.6188
▁Upon	-11.6188
▁3^2	-11.6189
▁wooden	-11.6189
▁nennen	-11.619
▁Ortschaft	-11.619
▁mouse	-11.6191
▁Gemeinschaft	-11.6191
▁keeps	-11.6194
▁Einheit	-11.6195
▁fehlen	-11.6196
▁votes	-11.6198
▁José	-11.6198
▁occurring	-11.62
▁assignment	-11.6201
▁dict	-11.6202
▁characterized	-11.6202
▁purple	-11.6202
▁1,5	-11.6203
▁Schneider	-11.6204
▁Autos	-11.6207
95	-11.6207
▁radical	-11.6208
Self	-11.6209
▁Schreiben	-11.6209
▁Mountains	-11.621
▁sharp	-11.621
pad	-11.6212
▁planting	-11.6212
room	-11.6212
▁hieß	-11.6214
▁Blatt	-11.6216
▁sons	-11.6216
serie	-11.6217
Msg	-11.6217
▁promise	-11.6218
pflege	-11.6221
▁preferred	-11.6221
▁beans	-11.6221
▁dose	-11.6221
▁Email	-11.6223
▁Executive	-11.6224
▁Round	-11.6225
han	-11.6225
require	-11.6227
▁Arm	-11.6227
▁29,	-11.6227
▁autism	-11.6228
▁wing	-11.6229
▁Unterricht	-11.6231
Callback	-11.6232
▁leitete	-11.6233
▁Einer	-11.6234
▁verließ	-11.6235
▁Streit	-11.6236
▁äußerst	-11.6236
▁friendly	-11.6236
Ver	-11.6237
▁Cold	-11.624
▁0);	-11.624
▁Hoffnung	-11.6242
▁30,	-11.6249
▁reduziert	-11.6251
(|	-11.6256
▁holiday	-11.6256
▁taxes	-11.6262
seq	-11.6265
▁Geist	-11.6266
▁Bildern	-11.6267
▁EM	-11.6267
▁icon	-11.6267
▁Figuren	-11.6268
е	-11.6268
even	-11.6269
▁2004,	-11.6277
▁featuring	-11.6279
▁Yu	-11.628
▁TODO	-11.628
▁schließen	-11.6281
▁Physics	-11.6282
▁sixth	-11.6283
▁sichtbar	-11.6285
ot	-11.6287
▁Versorgung	-11.6288
ula	-11.6288
▁cache	-11.6288
▁einfacher	-11.6289
▁schafft	-11.6289
▁administrative	-11.6289
▁assumed	-11.6291
▁abilities	-11.6292
tools	-11.6297
▁annually	-11.6298
▁Zusatz	-11.6299
▁unsafe	-11.6299
▁Nick	-11.6299
▁intersect	-11.63
▁indigenous	-11.6302
tisch	-11.6305
▁Entstehung	-11.6306
sha	-11.6307
▁aimed	-11.6307
▁betroffen	-11.6308
▁Volk	-11.6308
▁Weihnachts	-11.6309
▁(=	-11.6309
▁destination	-11.6309
▁streets	-11.6312
▁trading	-11.6313
▁centimeters	-11.6313
▁worry	-11.6316
▁Grundlagen	-11.6316
▁structural	-11.632
[3]{	-11.6321
▁solltest	-11.6321
▁sämtliche	-11.6321
▁geschützt	-11.6322
▁robot	-11.6324
▁organisiert	-11.6325
▁intensity	-11.6326
▁translated	-11.6326
▁narrative	-11.6328
▁Ad	-11.6328
▁Vielen	-11.6329
plus	-11.633
▁77	-11.633
▁concert	-11.6333
▁beschreibt	-11.6334
dist	-11.6335
▁Ressourcen	-11.6335
▁Color	-11.6338
▁Cast	-11.6339
▁laser	-11.634
▁südlichen	-11.6342
▁cents	-11.6344
bildung	-11.6345
edu	-11.6346
▁Julian	-11.6348
▁anmeldung	-11.6348
▁Trainings	-11.6349
▁lighting	-11.6349
▁Indien	-11.6351
▁Girl	-11.6352
▁villages	-11.6353
▁ausgetragen	-11.6356
▁meets	-11.6361
▁Basic	-11.6362
Control	-11.6363
▁Verband	-11.6365
▁historische	-11.6366
▁identification	-11.6368
▁Zoo	-11.6376
▁suicide	-11.6377
▁Think	-11.6378
▁interessante	-11.638
admin	-11.6381
▁herzlich	-11.6382
▁arg	-11.6383
▁incident	-11.6383
▁offiziellen	-11.6384
▁insight	-11.6385
▁Author	-11.6386
▁planets	-11.6386
SIZE	-11.6387
plugin	-11.6387
▁exciting	-11.6387
▁ellipse	-11.6389
▁Finger	-11.639
▁reflected	-11.639
▁Entfernung	-11.639
conv	-11.6392
▁Perhaps	-11.6392
tab	-11.6392
▁Urteil	-11.6392
▁Blüten	-11.6393
▁codes	-11.6395
▁Umsatz	-11.6395
▁cattle	-11.6395
▁Universal	-11.6395
▁gelangen	-11.6396
Er	-11.6397
▁Anderson	-11.64
▁namens	-11.64
weise	-11.64
▁Thanks	-11.6401
help	-11.6401
▁nahmen	-11.6401
▁inputs	-11.6402
TO	-11.6402
Web	-11.6408
▁Bass	-11.6408
▁churches	-11.641
▁2008.	-11.6411
▁erfolgreiche	-11.6414
▁informed	-11.6414
▁Worte	-11.6415
▁sammeln	-11.6416
shared	-11.6417
▁Kategorien	-11.642
▁450	-11.642
▁Tourismus	-11.6426
▁integration	-11.6427
▁varies	-11.6428
▁klassische	-11.6432
▁geändert	-11.6434
▁Ulrich	-11.6437
▁Reform	-11.6437
▁Kanada	-11.6439
Json	-11.644
RE	-11.6441
Val	-11.6443
▁variation	-11.6443
unter	-11.6445
34	-11.6445
▁pink	-11.6446
rot	-11.6447
▁nochmal	-11.6447
▁Stadium	-11.6448
laden	-11.6449
▁2018.	-11.6449
▁cotton	-11.645
▁Konkurrenz	-11.645
▁absence	-11.6451
▁cooling	-11.6456
70	-11.6456
▁Solo	-11.6457
▁15%	-11.6458
▁chest	-11.6459
ierten	-11.6462
▁tens	-11.6462
▁simultaneously	-11.6463
▁Varianten	-11.6465
▁Karlsruhe	-11.6465
Pos	-11.6466
▁Weiteren	-11.6468
▁längst	-11.6468
▁Moore	-11.6469
▁0:	-11.6469
▁personality	-11.6469
Handle	-11.647
Top	-11.647
▁pos	-11.6474
▁Jede	-11.6474
▁6)	-11.6476
▁gravity	-11.6476
temp	-11.6477
high	-11.6478
bo	-11.6479
▁draft	-11.648
▁Zahlung	-11.6481
▁Angriff	-11.6481
▁residential	-11.6482
▁bot	-11.6482
sberg	-11.6482
sex	-11.6483
▁trends	-11.6484
▁Subtract	-11.6485
-10	-11.6485
▁Gustav	-11.6489
über	-11.6489
hu	-11.649
▁comedy	-11.649
▁BMW	-11.649
ship	-11.649
▁Loch	-11.6492
▁liefert	-11.6492
▁Übersetzung	-11.6493
▁Kommission	-11.6493
▁Miami	-11.6493
▁shares	-11.6496
▁Unterkunft	-11.6497
rum	-11.6498
▁Heinz	-11.65
▁bases	-11.65
▁sight	-11.65
▁[[	-11.6505
▁pen	-11.6507
▁SS	-11.6509
▁bestehenden	-11.6512
▁attribute	-11.6513
▁Dance	-11.6513
▁reporting	-11.6515
Man	-11.6516
▁minister	-11.6517
▁documentation	-11.6517
{3}{4}	-11.6517
▁Kapelle	-11.6518
▁neighborhood	-11.6518
▁Cultural	-11.6519
▁hinten	-11.652
▁traf	-11.652
▁lungs	-11.652
▁Stage	-11.652
▁Display	-11.6522
▁Ablauf	-11.6522
power	-11.6523
▁Gründer	-11.6523
▁INTO	-11.6524
dimensional	-11.6527
month	-11.6527
▁Schmerzen	-11.6528
▁Verlust	-11.6529
zahl	-11.6531
▁Katzen	-11.6532
▁schwierig	-11.6535
▁Tony	-11.6535
"));	-11.6535
verein	-11.6536
▁engines	-11.6536
▁Introduction	-11.6536
}>	-11.6538
▁willst	-11.6542
▁Rosa	-11.6542
▁künftig	-11.6542
▁educators	-11.6543
▁Dead	-11.6544
29	-11.6544
▁Norway	-11.6544
ney	-11.6547
▁photographs	-11.6547
▁Seminar	-11.6548
▁Orange	-11.6549
▁antibiotics	-11.6551
Band	-11.6551
▁Utah	-11.6552
▁Präsidenten	-11.6554
▁Err	-11.6555
▁Funk	-11.6555
▁thermal	-11.6557
▁directions	-11.6558
▁Andrea	-11.6559
Weiterlesen	-11.656
▁Restaurants	-11.6563
async	-11.6563
▁Return	-11.6564
▁harder	-11.6567
▁Schwangerschaft	-11.6568
▁Choose	-11.6568
▁deer	-11.6569
▁accurately	-11.6569
▁balanced	-11.657
▁DJ	-11.657
▁Linien	-11.6571
▁Info	-11.6573
▁infinite	-11.6576
▁Europas	-11.6577
▁sells	-11.6579
▁exploration	-11.6579
▁Baseball	-11.658
Main	-11.6581
31	-11.6583
▁natürliche	-11.6584
▁Meyer	-11.6585
▁Melbourne	-11.6585
▁wet	-11.6586
▁Sterne	-11.6598
▁ficken	-11.6598
▁BASIS	-11.6599
▁Theorem	-11.6599
▁stuff	-11.6599
▁Paper	-11.6603
▁Blues	-11.6603
▁Rheinland	-11.6608
▁tollen	-11.6609
▁herself	-11.661
storage	-11.6611
▁communications	-11.6612
Reader	-11.6616
▁promotion	-11.6617
▁xxx	-11.6617
▁Command	-11.6618
▁establishment	-11.6618
▁einiges	-11.6621
▁Houston	-11.6621
▁pets	-11.6622
▁consideration	-11.6622
▁1870	-11.6624
lichkeit	-11.6625
ó	-11.6626
▁producers	-11.6626
▁Kontakte	-11.6628
▁alive	-11.663
▁footballer	-11.6631
▁Deep	-11.6632
▁nutzt	-11.6632
▁examined	-11.6633
▁Schäden	-11.6637
▁Scientific	-11.6637
Layer	-11.6638
▁Hawaii	-11.6642
made	-11.6642
▁dis	-11.6645
▁steam	-11.6647
berger	-11.6648
era	-11.665
▁lebten	-11.6651
▁Mc	-11.6651
36	-11.6651
▁universities	-11.6652
▁Peru	-11.6652
▁hotel	-11.6653
▁isolated	-11.6653
▁Objekt	-11.6655
▁span	-11.6655
▁angesehen	-11.6659
▁continuing	-11.6662
▁Ö	-11.6662
▁Komfort	-11.6663
▁Julius	-11.6664
metadata	-11.6666
(__	-11.6666
▁Speicher	-11.667
con	-11.6671
▁meter	-11.6672
baum	-11.6673
▁jump	-11.6673
▁gezogen	-11.6674
▁Production	-11.6674
you	-11.6675
▁hyper	-11.6675
▁ISBN	-11.6677
sfähigkeit	-11.6679
▁irgendwie	-11.668
▁protective	-11.6681
▁trauma	-11.6683
▁appearances	-11.6684
break	-11.6684
▁belegt	-11.6686
▁col	-11.6687
▁volumes	-11.669
▁besucht	-11.6691
()).	-11.6692
▁polygon	-11.6692
▁Ram	-11.6692
▁forget	-11.6692
systeme	-11.6693
dirname	-11.6693
▁outdoor	-11.6695
fc	-11.6701
▁Weihnachten	-11.6702
▁gefällt	-11.6702
design	-11.6702
Mehr	-11.6702
▁Joachim	-11.6703
▁Ebenfalls	-11.6703
speed	-11.6703
▁testen	-11.6704
▁gebildet	-11.6705
▁Stimmung	-11.6706
▁Brust	-11.6708
▁Bundesrepublik	-11.671
▁Episode	-11.6711
▁ranging	-11.6711
{10	-11.6712
ky	-11.6713
▁Hitler	-11.6713
kammer	-11.6713
▁glauben	-11.6717
▁beach	-11.6717
ura	-11.6719
▁Theorie	-11.6721
▁1,000	-11.6722
▁westlichen	-11.6724
▁Puerto	-11.6726
▁engaging	-11.6727
▁classification	-11.6729
Record	-11.6729
▁aufgestellt	-11.6729
▁Zone	-11.6731
Menu	-11.6731
▁divides	-11.6733
Wenn	-11.6735
struct	-11.6737
▁migration	-11.6737
а	-11.6738
▁charts	-11.6739
▁entfernen	-11.6741
shift	-11.6742
▁Plätze	-11.6747
▁(7	-11.6747
▁Ehefrau	-11.6748
▁gelesen	-11.675
entity	-11.6751
04	-11.6751
exp	-11.6752
▁1904	-11.6752
▁Pa	-11.6753
▁Hu	-11.6754
▁Abraham	-11.6755
▁Hauses	-11.6755
hersteller	-11.6757
▁Durchführung	-11.6758
05	-11.6758
häuser	-11.6759
▁Federation	-11.6759
▁slavery	-11.6762
▁69	-11.6762
▁Umfang	-11.6762
▁posted	-11.6763
▁con	-11.6763
▁Working	-11.6763
abs	-11.6767
▁favor	-11.6769
▁fund	-11.6772
▁repeat	-11.6773
führer	-11.6774
▁["	-11.6775
▁tract	-11.6776
▁considerable	-11.6776
▁enables	-11.6778
{7	-11.6778
▁entitled	-11.6778
▁Entscheidungen	-11.6785
▁natürlichen	-11.6786
▁Sprecher	-11.6787
▁reichen	-11.6788
▁regarded	-11.6789
00,	-11.679
▁glaube	-11.6793
▁sinnvoll	-11.6794
stone	-11.6797
▁Datei	-11.68
▁Rugby	-11.68
▁Junge	-11.6803
World	-11.6804
MM	-11.6804
▁willing	-11.6806
▁feiern	-11.6807
Location	-11.6808
▁seemed	-11.681
delta	-11.6813
Layout	-11.6813
▁Charlotte	-11.6814
/2	-11.6816
28	-11.6816
▁regard	-11.6817
▁Spirit	-11.6818
username	-11.682
▁(2,	-11.682
▁Advanced	-11.6821
▁chances	-11.6821
▁Wieder	-11.6822
▁Commons	-11.6823
▁visiting	-11.6824
▁Should	-11.6826
▁heißen	-11.683
▁gases	-11.6832
▁-1$	-11.6833
▁slots	-11.6834
tech	-11.6834
Fi	-11.6838
▁freie	-11.684
▁overcome	-11.6841
▁threatened	-11.6842
bilder	-11.6842
▁defeat	-11.6843
queue	-11.6845
▁recycling	-11.6845
▁Schnell	-11.6846
▁78	-11.6846
▁Kredit	-11.6847
▁aggressive	-11.685
▁Bush	-11.6852
play	-11.6853
▁injured	-11.6853
▁burn	-11.6854
▁coding	-11.6854
▁britischer	-11.6854
▁Wahrheit	-11.6855
▁mistake	-11.6858
▁Geo	-11.686
sverfahren	-11.6862
▁Nachfrage	-11.6869
aria	-11.6871
▁bitten	-11.6872
▁Alkohol	-11.6872
▁planted	-11.6874
ial	-11.6874
▁layout	-11.6875
coordinate	-11.6877
▁Redaktion	-11.6883
▁imaging	-11.6884
▁Händler	-11.6886
▁manche	-11.6887
specific	-11.6887
▁wenden	-11.6888
▁Ferien	-11.6888
Op	-11.6889
jo	-11.689
▁verbessert	-11.6891
Kind	-11.6891
▁safely	-11.6892
▁fur	-11.6892
▁spoken	-11.6893
▁Mario	-11.6902
Mit	-11.6903
▁Ya	-11.6905
▁eingeladen	-11.6906
▁differently	-11.6906
▁Ba	-11.6907
▁Gordon	-11.6908
distance	-11.6912
▁routes	-11.6914
300	-11.6914
seed	-11.6914
▁harvest	-11.6915
▁Haare	-11.6915
▁Maschine	-11.6917
▁Fitness	-11.6917
images	-11.6918
ón	-11.6918
▁"\	-11.6919
hat	-11.6919
▁Switzerland	-11.6919
▁Lawrence	-11.6921
▁Untersuchungen	-11.6921
▁Schatten	-11.6921
▁Foreign	-11.6922
▁bands	-11.6922
PC	-11.6922
▁Herrn	-11.6924
▁Philippines	-11.6925
▁Dec	-11.6926
▁5000	-11.6926
▁Norwegian	-11.693
▁Niedersachsen	-11.693
)^	-11.693
▁Pause	-11.6935
front	-11.6935
▁laden	-11.6937
▁Matthew	-11.6938
reg	-11.6941
▁Département	-11.6941
▁Ärzte	-11.6943
▁speziellen	-11.6944
nik	-11.6945
meter	-11.6948
▁falsch	-11.6948
▁Branchen	-11.6951
▁Franklin	-11.6952
▁Faktoren	-11.6952
enberg	-11.6953
▁farms	-11.6955
▁BE	-11.6955
▁Albums	-11.6955
▁neuesten	-11.6955
▁boundaries	-11.696
news	-11.6961
▁älteren	-11.6961
▁zusätzlichen	-11.6962
▁endet	-11.6962
Host	-11.6968
▁emerging	-11.697
▁traditions	-11.6971
transform	-11.6971
▁88	-11.6971
▁exports	-11.6972
ware	-11.6973
▁addresses	-11.6973
▁emphasis	-11.6974
▁Hochzeit	-11.6977
pro	-11.6979
forEach	-11.698
▁enabled	-11.698
▁believes	-11.698
▁beinhaltet	-11.698
face	-11.6981
▁Aktionen	-11.6981
▁Dame	-11.6984
about	-11.6984
▁functioning	-11.6985
▁Halbfinale	-11.6987
{16}	-11.6988
▁decay	-11.6988
▁productivity	-11.6989
▁telling	-11.6989
▁currency	-11.699
typ	-11.699
nicht	-11.6994
▁prize	-11.6994
▁Zentral	-11.6994
▁Trotzdem	-11.6997
▁affecting	-11.6999
▁cycles	-11.7003
▁Sources	-11.7004
▁verzichten	-11.7005
Plugin	-11.7007
▁psychology	-11.7007
▁Vegas	-11.7008
▁Sendung	-11.701
▁0.0	-11.7012
▁dozen	-11.7012
▁Chart	-11.7013
lab	-11.7013
▁Rezept	-11.7014
▁bond	-11.7015
▁mortality	-11.7015
▁wonder	-11.7017
▁Temperaturen	-11.7018
▁projection	-11.702
▁Commonwealth	-11.702
▁commitment	-11.7021
▁Braunschweig	-11.7021
▁allgemein	-11.7025
▁Queensland	-11.7027
▁paths	-11.7027
▁capabilities	-11.7029
▁meistens	-11.7031
▁angenommen	-11.7031
▁Bin	-11.7033
▁Besitzer	-11.7034
▁Sturm	-11.7042
▁accompanied	-11.7042
°	-11.7045
Values	-11.7046
▁Boot	-11.7046
▁Laser	-11.7047
Close	-11.7048
▁Apply	-11.7049
▁Pay	-11.705
▁intensive	-11.7051
▁Gratis	-11.7053
▁Branche	-11.7053
▁128	-11.7053
geschwindigkeit	-11.7056
▁addressed	-11.7056
▁Ansprechpartner	-11.7057
callback	-11.7058
▁diesmal	-11.706
exists	-11.706
▁trug	-11.706
▁Sophia	-11.7063
▁Termine	-11.7064
▁Halb	-11.7064
▁restore	-11.7065
▁Rachel	-11.7066
▁snail	-11.7067
▁Lange	-11.7073
▁Schritte	-11.7073
▁promoting	-11.7073
▁raising	-11.7073
▁preparing	-11.7074
▁Indonesia	-11.7074
▁endete	-11.7074
▁demands	-11.7075
[:,	-11.7075
▁improvements	-11.7077
▁determining	-11.7078
Spiel	-11.7079
▁apparent	-11.7079
▁ISO	-11.7081
▁Grafen	-11.7081
▁installation	-11.7083
td	-11.7085
▁Mut	-11.7085
▁Arnold	-11.7086
▁Laufbahn	-11.7087
Klasse	-11.7089
▁Parks	-11.7093
▁counting	-11.7096
ea	-11.7096
connect	-11.7097
isation	-11.7097
▁employee	-11.7098
▁Lower	-11.7098
▁documentary	-11.7098
fish	-11.7099
▁gathered	-11.7099
▁differ	-11.71
Step	-11.71
▁availability	-11.71
▁sitzen	-11.7102
▁Tree	-11.7103
▁grounds	-11.7104
vm	-11.7105
▁duty	-11.7106
▁PhD	-11.7106
▁offices	-11.7107
▁weiterlesen	-11.7108
▁concerning	-11.7108
ise	-11.7109
▁Willkommen	-11.711
▁Morgan	-11.711
▁Erinnerung	-11.7112
▁durfte	-11.7113
▁opposition	-11.7114
▁titles	-11.7115
▁Par	-11.7116
::<	-11.7118
▁menu	-11.7118
▁nationalen	-11.7119
▁Costa	-11.7119
▁gardens	-11.712
▁stattfinden	-11.712
▁Years	-11.7121
▁gespeichert	-11.7122
▁76	-11.7122
▁atoms	-11.7123
▁outbreak	-11.7124
▁regulation	-11.7125
law	-11.7131
▁Weber	-11.7135
▁achievement	-11.7136
▁hierfür	-11.7136
▁Release	-11.7138
▁strain	-11.7138
▁weshalb	-11.7144
Shop	-11.7146
▁underground	-11.7146
▁EP	-11.7147
▁Has	-11.7147
▁disability	-11.7148
▁Prix	-11.7149
▁Islamic	-11.715
höhe	-11.715
▁volunteers	-11.7152
▁kurzer	-11.7154
▁vieles	-11.7154
▁angelegt	-11.7155
ward	-11.7155
▁Peace	-11.7156
▁teils	-11.7156
07	-11.7157
▁Fe	-11.7159
▁Roll	-11.7159
+3	-11.7159
▁Niveau	-11.7161
▁physically	-11.7161
}{1	-11.7161
▁aufmerksam	-11.7162
▁font	-11.7163
▁abandoned	-11.7165
▁Independent	-11.7165
heute	-11.7165
Properties	-11.7166
▁{};	-11.7168
▁mapping	-11.7171
▁frisch	-11.7173
▁Siedlung	-11.7175
Dialog	-11.7178
▁Practice	-11.7179
▁Grant	-11.7183
▁plain	-11.7183
idae	-11.7183
▁broke	-11.7184
▁Margaret	-11.7185
▁basiert	-11.7185
▁freue	-11.7186
▁iPad	-11.7188
▁Publishing	-11.7189
▁erwarb	-11.7191
▁lens	-11.7191
▁morgen	-11.7194
Co	-11.7197
▁wasn	-11.72
▁Ungarn	-11.7202
struktur	-11.7203
▁ergänzt	-11.7203
▁visits	-11.7204
▁CONDITIONS	-11.7204
▁beam	-11.7206
▁disk	-11.7206
▁declare	-11.7208
▁Anders	-11.721
portal	-11.7214
Im	-11.7215
=2	-11.7216
▁ausgeschlossen	-11.7218
▁Hierbei	-11.7219
▁variations	-11.722
▁ml	-11.7222
▁rolls	-11.7223
▁Affairs	-11.7223
pin	-11.7224
▁Prinzip	-11.7224
▁surrounded	-11.7225
▁objectives	-11.7226
▁98	-11.7226
▁beschlossen	-11.7227
CH	-11.7228
▁Taking	-11.7229
▁Ware	-11.7231
▁Filter	-11.7232
▁Galaxy	-11.7232
▁Neubau	-11.7232
▁Flucht	-11.7233
Rule	-11.7234
Matrix	-11.7234
▁Mia	-11.7236
▁soccer	-11.7241
▁destroy	-11.7242
▁clothes	-11.7242
El	-11.7243
▁Pope	-11.7243
▁Zentimeter	-11.7243
▁Lisa	-11.7245
▁Capital	-11.7245
▁sp	-11.7249
▁verb	-11.7249
▁Talk	-11.7249
▁07	-11.7251
Ptr	-11.7253
▁Fu	-11.7253
▁angepasst	-11.7255
▁pointed	-11.7255
▁guest	-11.7257
▁dictionary	-11.7258
▁cure	-11.7259
▁getestet	-11.7259
living	-11.7262
▁Augsburg	-11.7262
▁Bauch	-11.7262
▁Dienste	-11.7263
▁tumor	-11.7266
rock	-11.7266
▁breaks	-11.7266
▁Carbon	-11.7272
▁müsse	-11.7272
rceil	-11.7276
▁gum	-11.7277
lceil	-11.7279
▁Fünf	-11.7281
▁clay	-11.7283
rm	-11.7284
▁twelve	-11.7286
▁royal	-11.7287
▁intervals	-11.7288
▁murder	-11.7289
▁rolling	-11.7289
▁Tower	-11.729
▁Internationalen	-11.7291
crate	-11.7293
▁cd	-11.7293
▁101	-11.7293
▁merely	-11.7293
▁adjust	-11.7294
▁Victor	-11.7296
▁Aug	-11.7296
▁gearbeitet	-11.7297
▁Kommunikations	-11.7298
▁Optionen	-11.7298
▁Porno	-11.7298
▁Ancient	-11.7301
▁Spezial	-11.7304
▁incorporated	-11.7309
▁Allgemeinen	-11.7311
▁elementary	-11.7311
▁Bundesregierung	-11.7313
▁NRW	-11.7315
ups	-11.7315
▁Amateur	-11.7316
▁Leidenschaft	-11.7316
▁rainfall	-11.7317
▁fatigue	-11.7319
▁Novoline	-11.732
EQ	-11.732
▁Classic	-11.7321
▁gelingt	-11.7323
▁expenses	-11.7324
▁Maine	-11.7325
▁urine	-11.7328
▁titled	-11.733
▁Au	-11.733
gate	-11.7332
▁nuts	-11.7335
▁robust	-11.7335
08	-11.7337
▁Anleitung	-11.7337
arr	-11.7338
Configuration	-11.734
▁construct	-11.7341
▁polar	-11.7343
▁Angel	-11.7343
▁Franken	-11.7348
▁echte	-11.735
▁erinnern	-11.735
▁situated	-11.7351
▁beendet	-11.7352
▁Träger	-11.7353
▁parish	-11.7353
55	-11.7354
lan	-11.7355
▁05	-11.7355
▁Zutaten	-11.7355
▁teilnehmen	-11.7356
▁Systeme	-11.7357
▁$4$	-11.7358
▁prüfen	-11.7359
▁Kai	-11.7359
▁funded	-11.7359
▁Put	-11.7361
del	-11.7361
▁Roulette	-11.7361
▁gebe	-11.7362
▁determinant	-11.7363
internal	-11.7363
fiction	-11.7363
▁celebrate	-11.7363
▁erlebt	-11.7365
▁verstärkt	-11.7365
▁Dog	-11.7368
▁Geography	-11.7368
zen	-11.737
modules	-11.737
leiter	-11.7373
▁Erklärung	-11.7374
▁cord	-11.7375
▁Freien	-11.7377
▁Grill	-11.7377
▁publications	-11.7379
▁Answer	-11.7382
▁cap	-11.7383
▁wonderful	-11.7383
▁Malaysia	-11.7383
▁vegetation	-11.7386
▁Frederick	-11.7387
▁joining	-11.7388
▁Journalist	-11.7388
▁creatures	-11.7389
▁ease	-11.7391
▁landing	-11.7391
Invalid	-11.7393
cluster	-11.7393
▁2007.	-11.7396
▁Adams	-11.7396
▁Flugzeug	-11.7396
karten	-11.7397
▁multiplying	-11.7397
▁intellectual	-11.7399
▁Mediterranean	-11.7401
▁popularity	-11.7401
flug	-11.7401
nummer	-11.7401
▁Insbesondere	-11.7402
▁Net	-11.7403
▁victim	-11.7405
▁à	-11.7405
▁mache	-11.7405
▁breaking	-11.7406
▁frau	-11.7406
▁nutrient	-11.7407
loc	-11.7408
▁Luther	-11.7408
▁31,	-11.7408
sp	-11.7408
▁verteilt	-11.7409
▁Objekte	-11.7409
▁handeln	-11.7411
▁09	-11.7415
▁INSERT	-11.7416
▁NS	-11.7417
▁Tatsache	-11.7419
▁Reaktion	-11.742
bash	-11.7422
▁Fa	-11.7423
record	-11.7426
ec	-11.7428
product	-11.7428
▁Expanding	-11.7428
▁Fred	-11.7428
▁Einstellung	-11.7429
▁dietary	-11.743
▁seitdem	-11.7432
▁vorgesehen	-11.7434
eval	-11.7436
▁definitely	-11.7437
tier	-11.7437
▁benutzen	-11.7437
▁restoration	-11.744
bb	-11.7444
▁Organisationen	-11.7444
Root	-11.7445
kunst	-11.7447
▁platforms	-11.7447
▁championship	-11.7448
▁chair	-11.7448
PS	-11.7449
▁adapt	-11.745
▁kernel	-11.7451
▁Carlos	-11.7452
▁geometry	-11.7452
▁zentrale	-11.7452
reset	-11.7452
But	-11.7454
▁technological	-11.7454
▁Tokyo	-11.7455
ho	-11.7455
▁Brot	-11.7457
▁versuchte	-11.7458
▁scan	-11.7461
▁Münchner	-11.7463
▁Studios	-11.7465
▁(8	-11.7469
▁verbinden	-11.7469
▁komplette	-11.7471
▁cardiovascular	-11.7473
Core	-11.7473
]]	-11.7473
▁contributing	-11.7477
▁Cook	-11.7479
▁Med	-11.7479
▁prey	-11.7479
Display	-11.748
▁Partie	-11.7482
▁WLAN	-11.7482
Interface	-11.7483
▁Prior	-11.7484
▁Oil	-11.7486
▁Often	-11.7486
ale	-11.7489
▁Prozesse	-11.7489
▁führten	-11.749
▁MB	-11.749
▁Dublin	-11.7492
success	-11.7492
▁Kleidung	-11.7492
▁payload	-11.7492
400	-11.7495
▁Aussage	-11.7496
Player	-11.7497
Haus	-11.7497
▁Industrial	-11.7498
Param	-11.7499
▁2003,	-11.7499
▁Aufnahmen	-11.7499
▁Erd	-11.7499
cb	-11.7499
▁Background	-11.7501
▁Jedes	-11.7502
▁nn	-11.7504
▁Wagner	-11.7506
▁Mannheim	-11.7506
objects	-11.7507
▁Essay	-11.7508
▁sending	-11.7509
▁Fahr	-11.7509
▁spin	-11.7509
▁Rathaus	-11.7509
▁Kennedy	-11.7509
▁Aufenthalt	-11.751
('./	-11.751
▁hypothesis	-11.7511
▁1/4	-11.7516
▁slave	-11.7517
▁9:	-11.7519
sson	-11.7519
produktion	-11.7521
▁preserved	-11.7522
▁Fett	-11.7524
▁Six	-11.7526
▁Ufer	-11.7526
▁spinal	-11.7527
▁Küchen	-11.7528
▁succeeded	-11.753
32_	-11.7533
▁hunting	-11.7535
▁argue	-11.7536
0)	-11.7536
▁dramatic	-11.7537
▁unteren	-11.754
stage	-11.754
▁tribes	-11.754
▁Auseinandersetz	-11.7542
▁Internationale	-11.7543
▁06	-11.7543
▁zugänglich	-11.7544
▁reveals	-11.7545
▁ranges	-11.7545
▁governor	-11.7545
Select	-11.7546
{1}{2}\	-11.7547
▁bacterial	-11.7548
▁Turn	-11.7549
loop	-11.7551
▁Lehre	-11.7553
▁gleichnamigen	-11.7554
▁Nordosten	-11.7554
▁Erwachsene	-11.7554
▁dairy	-11.7555
▁Singapore	-11.7555
▁lifetime	-11.7556
▁$(0,	-11.7556
friendly	-11.7557
General	-11.7559
dx	-11.7563
▁applies	-11.7564
▁$100	-11.7565
▁Vi	-11.7565
▁Plot	-11.7566
▁zentralen	-11.7567
▁fires	-11.7568
▁Christians	-11.7568
▁Aspekte	-11.757
▁Multiply	-11.757
▁vegetable	-11.7571
▁untersucht	-11.7572
▁craft	-11.7573
▁Digitalisierung	-11.7574
▁dominant	-11.7576
Types	-11.7577
▁Mischung	-11.7577
▁bias	-11.7577
▁Theory	-11.7578
▁targeted	-11.7578
▁Archiv	-11.7582
selected	-11.7583
▁valley	-11.7585
▁Species	-11.7587
▁Gewinner	-11.7588
▁Village	-11.759
▁Maß	-11.759
▁investigate	-11.7593
▁Tools	-11.7594
ast	-11.7596
▁desto	-11.7598
▁fatty	-11.7599
GET	-11.7599
▁Mill	-11.7599
pack	-11.7601
▁env	-11.7601
abteilung	-11.7601
▁Mental	-11.7603
▁Aufwand	-11.7604
▁Wal	-11.7606
lon	-11.7607
▁cable	-11.7608
Job	-11.7608
86	-11.7609
▁beat	-11.7609
▁speaker	-11.761
▁specialized	-11.7611
▁Son	-11.7611
▁Hammer	-11.7613
▁minus	-11.7613
▁jene	-11.7614
▁Turkish	-11.7615
▁attempted	-11.7615
▁61	-11.7615
▁SA	-11.7615
▁selecting	-11.7615
▁Graz	-11.7616
▁participating	-11.7617
▁Auftritt	-11.7617
▁Schau	-11.7618
▁Moscow	-11.7618
▁pupils	-11.762
▁Seele	-11.7621
▁poly	-11.7621
EF	-11.7621
▁appointment	-11.7621
▁architect	-11.7624
▁corporate	-11.7626
wide	-11.7626
▁günstig	-11.7628
▁(12	-11.7628
▁Arkansas	-11.7628
▁miss	-11.7629
wall	-11.7629
▁hosted	-11.7629
▁finger	-11.763
▁Felix	-11.763
49	-11.7631
▁Flash	-11.7631
▁Abitur	-11.7631
▁passengers	-11.7631
ani	-11.7633
▁wings	-11.7633
▁hip	-11.7633
▁Jakob	-11.7634
▁Father	-11.7634
▁Direkt	-11.7635
▁Arbeitnehmer	-11.7636
story	-11.7636
▁paying	-11.7636
▁disabled	-11.7636
▁Paket	-11.7637
▁10,000	-11.7637
▁solcher	-11.7638
▁CREATE	-11.764
▁Seattle	-11.7642
▁insert	-11.7642
▁progression	-11.7642
▁Marco	-11.7642
Left	-11.7643
500	-11.7643
▁Gymnasium	-11.7645
▁competitive	-11.7645
Project	-11.7647
▁Dakota	-11.7648
▁holen	-11.7649
▁fuels	-11.7649
arctan	-11.765
▁Select	-11.7651
▁behalten	-11.7652
ı	-11.7652
}$$	-11.7653
▁Avoid	-11.7655
▁phones	-11.7657
▁gesprochen	-11.7657
▁actively	-11.7661
)^2}	-11.7661
▁grains	-11.7662
▁lokalen	-11.7662
Bearbeiten	-11.7665
▁Fern	-11.7666
▁Brain	-11.7667
▁Kindergarten	-11.7668
hidden	-11.7668
▁breed	-11.7668
▁specialist	-11.7669
▁Gabriel	-11.7671
▁Großteil	-11.7672
▁Inseln	-11.7676
▁Wahrscheinlich	-11.7676
ABCD	-11.7678
tum	-11.7679
▁verbringen	-11.7679
▁Spenden	-11.768
Art	-11.7681
NET	-11.7682
Wrapper	-11.7683
▁worship	-11.7683
▁vaccines	-11.7686
▁streams	-11.7687
si	-11.7688
▁Gegend	-11.7689
They	-11.7695
▁para	-11.7695
▁refused	-11.7695
MAX	-11.7695
▁dream	-11.7696
▁Animal	-11.7696
SE	-11.7697
▁Tamil	-11.7698
application	-11.7699
▁Südwesten	-11.7699
▁Finanzierung	-11.7699
▁rating	-11.77
▁eaten	-11.77
▁Feb	-11.77
▁Rück	-11.7701
▁requested	-11.7702
▁Altstadt	-11.7702
brücke	-11.7703
▁checking	-11.7705
▁Del	-11.7705
▁bestehende	-11.7706
produkte	-11.7707
▁Spitzen	-11.7708
▁Braun	-11.7713
▁expertise	-11.7716
classes	-11.7717
▁repeating	-11.7717
▁digestive	-11.7719
▁slaves	-11.772
gray	-11.772
▁Grüße	-11.7721
▁PA	-11.7722
Media	-11.7727
▁allgemeinen	-11.7728
quality	-11.7728
▁Hardware	-11.773
note	-11.7733
watch	-11.7734
party	-11.7734
▁placing	-11.7735
700	-11.7735
▁thereby	-11.7736
▁richtet	-11.7737
▁kitchen	-11.7739
8,	-11.7741
▁Stadion	-11.7741
▁traveling	-11.7743
▁rabbits	-11.7744
▁props	-11.7744
First	-11.7745
▁>>>	-11.7746
▁glücklich	-11.7747
▁sensitivity	-11.7748
▁Academic	-11.775
▁Meanwhile	-11.775
▁recover	-11.775
▁schwere	-11.7751
lim	-11.7751
▁Griechenland	-11.7752
▁gesund	-11.7752
▁instances	-11.7753
▁Encyclopedia	-11.7756
▁Göttingen	-11.7757
nn	-11.7761
▁executed	-11.7761
bits	-11.7762
Failed	-11.7763
kurs	-11.7763
▁desert	-11.7766
▁berufen	-11.7767
▁übrigen	-11.7767
limit	-11.7768
▁manual	-11.7769
▁proposal	-11.7769
▁Kölner	-11.7769
access	-11.777
▁108	-11.777
cur	-11.777
▁opt	-11.777
▁stood	-11.7771
cot	-11.7771
▁competed	-11.7772
▁Gr	-11.7775
▁Flora	-11.7779
▁Creative	-11.778
▁Gar	-11.7781
":"	-11.7782
▁Shakespeare	-11.7783
▁getragen	-11.7784
▁utility	-11.7786
65	-11.779
▁wechseln	-11.7791
▁erhielten	-11.7791
▁2002,	-11.7791
größe	-11.7793
▁Räume	-11.7796
▁xy	-11.7796
xyz	-11.7797
Land	-11.7798
▁commit	-11.7799
▁disabilities	-11.7799
▁Hektar	-11.7799
▁Emperor	-11.7799
▁Atlanta	-11.78
▁schwarzen	-11.7801
Process	-11.7803
▁Arena	-11.7803
▁Orchester	-11.7803
▁Erweiterung	-11.7803
▁Käufer	-11.7804
mühle	-11.7805
▁Eye	-11.7805
ă	-11.7806
▁transaction	-11.7807
▁strike	-11.7807
ara	-11.7808
▁Il	-11.7808
zer	-11.7809
▁homework	-11.7809
š	-11.781
▁willkommen	-11.781
▁smell	-11.7813
▁Mercedes	-11.7813
▁solo	-11.7814
▁Aluminium	-11.7815
connection	-11.7816
▁erhoben	-11.7816
▁Cell	-11.7817
▁expectations	-11.7818
▁Wann	-11.7819
▁tags	-11.7819
▁throat	-11.7822
▁reasonable	-11.7822
▁pipes	-11.7822
▁ehe	-11.7825
▁spacecraft	-11.7826
▁-5	-11.7827
bert	-11.7827
Persönlichkeiten	-11.7827
/**	-11.7829
▁{"	-11.7829
▁Below	-11.783
▁Zahn	-11.7831
▁fuhr	-11.7834
▁Statistics	-11.7834
▁argued	-11.7834
Find	-11.7834
▁£	-11.7836
▁Monte	-11.7837
▁integriert	-11.7837
▁Aachen	-11.7837
mg	-11.784
▁Kostenlose	-11.7841
▁synthetic	-11.7844
(6)	-11.7845
▁engagement	-11.7848
▁Bird	-11.7849
lat	-11.785
▁Understanding	-11.7852
▁Mond	-11.7853
chain	-11.7853
▁blind	-11.7854
▁Defense	-11.7855
▁Strecken	-11.7855
fd	-11.7855
ping	-11.7856
▁municipality	-11.7857
▁Nelson	-11.7857
▁Fälle	-11.7857
▁feels	-11.7859
cls	-11.7859
▁coordinate	-11.786
▁optimale	-11.786
▁Expand	-11.786
▁fühlt	-11.7861
▁Currently	-11.7862
▁img	-11.7863
vi	-11.7863
▁invited	-11.7863
klasse	-11.7866
ika	-11.7867
▁Änderung	-11.7867
▁Electric	-11.7869
▁weisen	-11.7869
▁$30	-11.787
▁1901	-11.7871
▁colonial	-11.7872
▁getrennt	-11.7873
apply	-11.7873
▁Oper	-11.7873
▁Schön	-11.7876
▁Ron	-11.7876
Next	-11.788
Pool	-11.7882
▁Extra	-11.7884
▁2015:	-11.7884
▁wachsen	-11.7885
▁0.1	-11.7885
▁varying	-11.7885
▁Wander	-11.7885
▁sodium	-11.7887
▁Dating	-11.7888
Description	-11.7888
▁traditionellen	-11.7889
▁Speed	-11.789
▁elsewhere	-11.7891
▁SET	-11.7891
▁inhabitants	-11.7893
who	-11.7895
beck	-11.7895
▁FDA	-11.7895
▁Sonnen	-11.7896
tage	-11.7896
▁survived	-11.7897
▁stamps	-11.7897
▁Poly	-11.7897
▁Mix	-11.7898
▁anmelden	-11.7898
when	-11.7898
▁castle	-11.7898
▁confirm	-11.7899
▁triple	-11.7899
▁hoffe	-11.7903
▁oftmals	-11.7904
▁Nova	-11.7905
▁Entwickler	-11.7907
▁incorrect	-11.7907
▁Market	-11.7907
stats	-11.7908
▁Laura	-11.7908
licht	-11.7909
▁chicken	-11.791
gi	-11.791
▁Value	-11.7911
▁Oscar	-11.7911
super	-11.7912
▁Col	-11.7913
ette	-11.7913
brief	-11.7913
Graph	-11.7914
▁Innenstadt	-11.7916
▁Features	-11.7916
▁1896	-11.7917
▁Obst	-11.7917
▁Walker	-11.792
▁ecosystems	-11.792
▁Bel	-11.7922
draw	-11.7922
▁habitats	-11.7923
▁Mother	-11.7927
▁begun	-11.7927
▁Vice	-11.7928
▁Forscher	-11.7929
▁metals	-11.7929
▁cuts	-11.7931
▁Edinburgh	-11.7934
▁GB	-11.7937
▁Anerkennung	-11.7937
modell	-11.7938
▁mill	-11.7938
Func	-11.7939
▁Detroit	-11.7939
font	-11.794
▁Donau	-11.794
▁Mittelalter	-11.7941
report	-11.7942
▁Record	-11.7942
▁cakes	-11.7943
▁electrons	-11.7943
▁hospitals	-11.7945
▁ordinary	-11.7946
▁berücksichtigt	-11.7946
▁Eröffnung	-11.7947
flächen	-11.7948
▁bills	-11.7949
▁1902	-11.7949
▁Ne	-11.7949
▁Egyptian	-11.795
▁winners	-11.7951
sized	-11.7952
▁89	-11.7953
club	-11.7953
▁fährt	-11.7954
▁sitzt	-11.7958
▁Orten	-11.7959
DATA	-11.7959
▁emerged	-11.796
▁Brüder	-11.796
"},	-11.7961
▁Klang	-11.7962
tic	-11.7963
▁arrival	-11.7963
▁Ga	-11.7963
▁soul	-11.7963
▁nördlichen	-11.7965
▁Range	-11.7965
iz	-11.7965
▁senden	-11.7973
▁weißen	-11.7974
▁bits	-11.7975
▁Phil	-11.7975
▁apps	-11.7975
▁involvement	-11.7977
▁Ei	-11.7977
▁Bull	-11.7977
▁Transfer	-11.7978
(-\	-11.7978
▁evil	-11.7979
turm	-11.798
parameters	-11.798
▁init	-11.7983
▁Viertel	-11.7983
▁wächst	-11.7984
▁Location	-11.7985
▁Kleine	-11.7986
▁temp	-11.7989
▁tickets	-11.7991
256	-11.7994
Helper	-11.7994
▁Spielern	-11.7995
▁modify	-11.7996
▁WHERE	-11.7998
▁joints	-11.7999
▁verhindert	-11.8
▁Double	-11.8001
▁EPA	-11.8001
▁Palace	-11.8002
▁versteht	-11.8002
▁realized	-11.8003
▁df	-11.8004
therapie	-11.8005
2:	-11.8006
▁doors	-11.8007
▁counts	-11.8007
▁Marshall	-11.8009
▁Normal	-11.8011
▁1898	-11.8012
▁cancers	-11.8012
▁abhängig	-11.8013
gesetz	-11.8014
▁1899	-11.8016
▁shoes	-11.8016
▁direkten	-11.802
cs	-11.8023
▁expanding	-11.8024
AF	-11.8025
▁Default	-11.8026
Var	-11.8027
▁machten	-11.8028
▁Massen	-11.8028
▁Arbeiter	-11.8028
▁aussehen	-11.8031
▁Vaters	-11.8032
▁Drittel	-11.8032
▁Salt	-11.8033
▁Sortiment	-11.8034
▁Frankfurter	-11.8034
▁violent	-11.8035
▁Symptoms	-11.8036
▁iOS	-11.8036
▁democracy	-11.8037
▁invasive	-11.8037
▁cooperation	-11.8037
▁flags	-11.8038
Parser	-11.8038
=0	-11.8038
▁proportional	-11.8039
▁Männern	-11.8039
")]	-11.804
▁wahr	-11.8043
▁Michel	-11.8043
▁toys	-11.8044
▁Lese	-11.8045
▁tri	-11.8046
isten	-11.8046
75	-11.8046
▁Ansicht	-11.8048
_1^2	-11.8051
▁Wars	-11.8051
▁LG	-11.8051
om	-11.8052
▁calculations	-11.8052
▁verändern	-11.8053
▁exploring	-11.8053
▁Primary	-11.8053
ingen	-11.8053
Holstein	-11.8055
▁Stellung	-11.806
▁Teaching	-11.8062
▁Gerne	-11.8063
▁Widerstand	-11.8063
▁Kings	-11.8065
▁hall	-11.8065
▁KG	-11.8067
▁Match	-11.8067
eu	-11.8067
▁Budget	-11.8068
▁predicted	-11.8068
▁Versandkosten	-11.8069
ev	-11.8071
▁74	-11.8071
▁reads	-11.8071
▁Coach	-11.8074
▁medieval	-11.8076
▁geld	-11.8079
▁strategic	-11.8082
▁Liter	-11.8086
LOG	-11.8087
▁Kriterien	-11.8087
▁cheese	-11.8088
projekt	-11.8089
angebot	-11.809
▁deeply	-11.809
▁Financial	-11.809
▁scheduled	-11.8091
▁sustainability	-11.8092
▁overview	-11.8094
▁Bernard	-11.8094
▁Pflicht	-11.8095
▁biodiversity	-11.8096
▁remarkable	-11.8097
BE	-11.8098
▁commands	-11.8098
login	-11.8099
▁Wichtig	-11.8099
role	-11.8099
Meter	-11.81
mathbb	-11.8101
▁perception	-11.8103
ita	-11.8103
▁Größen	-11.8103
▁aufnehmen	-11.8104
▁stops	-11.8106
!”	-11.8108
linie	-11.8108
▁berichten	-11.8109
▁globe	-11.8111
▁colony	-11.8112
▁80%	-11.8112
▁guests	-11.8112
▁Tonnen	-11.8112
▁ermittelt	-11.8114
▁festgestellt	-11.8114
▁existed	-11.8114
▁[...]	-11.8114
Sie	-11.8115
=$	-11.8119
▁Christianity	-11.8122
▁cupcakes	-11.8127
▁Alliance	-11.8129
64)	-11.813
▁puts	-11.813
▁Eingang	-11.8131
Straße	-11.8135
▁Oh	-11.8136
▁supplement	-11.8137
▁Jay	-11.8137
▁erreichbar	-11.8138
▁Educational	-11.8138
▁noticed	-11.8139
▁Clean	-11.814
docs	-11.814
▁12$	-11.814
▁73	-11.8141
▁ra	-11.8141
west	-11.8144
▁italienischer	-11.8145
▁Herausgeber	-11.8146
▁beobachten	-11.8146
▁movies	-11.8146
▁libraries	-11.8147
▁Ecke	-11.8147
▁Depression	-11.8148
▁Oct	-11.8148
▁2011:	-11.8149
▁yields	-11.8152
▁societies	-11.8153
▁beliebt	-11.8153
Institut	-11.8154
▁Jonathan	-11.8154
▁Simple	-11.8155
menu	-11.8156
▁Mega	-11.8157
▁developers	-11.8158
▁Automobil	-11.8159
Unit	-11.8161
▁einsetzen	-11.8162
AL	-11.8162
träger	-11.8162
▁deutschsprachig	-11.8163
▁edited	-11.8164
▁Taiwan	-11.8164
▁butter	-11.8167
native	-11.8167
Stadt	-11.8169
ou	-11.8171
▁Never	-11.8172
▁Lizenz	-11.8172
▁schönsten	-11.8172
▁Questions	-11.8173
▁renamed	-11.8173
▁Making	-11.8174
▁wouldn	-11.8174
▁par	-11.8175
▁08	-11.8175
42	-11.8176
▁Mexiko	-11.8177
screen	-11.8177
▁Mind	-11.8178
expr	-11.8178
▁Things	-11.8178
▁mature	-11.8178
Lock	-11.8178
▁Rev	-11.8179
▁colonies	-11.8179
▁entschied	-11.818
▁god	-11.818
▁Brasilien	-11.8181
09	-11.8181
geld	-11.8182
▁kosten	-11.8185
FC	-11.8186
▁Materials	-11.8187
▁disc	-11.8188
▁Amerika	-11.8189
▁hormones	-11.8189
▁completing	-11.819
▁Excel	-11.8191
▁reform	-11.8191
▁Brazilian	-11.8192
▁installiert	-11.8192
▁indicating	-11.8193
▁Understand	-11.8195
tour	-11.8195
returns	-11.8197
▁pace	-11.8197
zip	-11.8197
▁plates	-11.8197
▁Weltkriegs	-11.8198
▁texture	-11.8199
▁5-	-11.8201
▁inclusive	-11.8201
▁couldn	-11.8204
▁Helmut	-11.8207
VERSION	-11.8208
▁artistic	-11.8208
▁(4)	-11.8209
▁gray	-11.8209
▁trains	-11.8209
geschäft	-11.8209
yl	-11.821
▁edit	-11.8211
▁dollar	-11.8212
▁ethical	-11.8212
▁wichtigste	-11.8212
▁fed	-11.8213
▁Sony	-11.8214
3-	-11.8215
▁Kent	-11.8216
▁Spielothek	-11.8218
▁completion	-11.8219
▁Holland	-11.822
▁Bezirks	-11.822
▁coaches	-11.8221
▁Alte	-11.8222
▁2001,	-11.8222
▁lakes	-11.8223
▁gehe	-11.8223
▁Hin	-11.8224
▁Nigeria	-11.8224
▁sciences	-11.8225
lower	-11.8226
▁origins	-11.8227
▁meaningful	-11.8228
coordinates	-11.823
▁7$	-11.8231
48	-11.8235
▁Vorgänger	-11.8235
▁erzählen	-11.8236
▁4$.	-11.8236
▁gesetzlichen	-11.8237
▁kleineren	-11.8237
▁spannende	-11.8237
rule	-11.824
▁dense	-11.8241
ons	-11.8242
▁sheets	-11.8242
sided	-11.8242
▁Auszeichnung	-11.8247
▁chips	-11.8247
▁confusion	-11.8249
▁themes	-11.825
▁Schiffe	-11.8251
▁Unterschiede	-11.8253
▁Montreal	-11.8256
▁transparent	-11.8257
▁viral	-11.8258
▁courts	-11.8258
▁Indeed	-11.8259
Software	-11.8259
▁Safe	-11.826
▁3}	-11.8262
▁basically	-11.8262
▁Array	-11.8263
▁Wohnungen	-11.8263
▁unlike	-11.8264
200	-11.8265
▁rugby	-11.8265
▁Dream	-11.8265
▁erheblich	-11.8266
fläche	-11.8268
▁thesis	-11.8269
▁Zubehör	-11.8272
member	-11.8275
▁Förder	-11.8276
39	-11.8276
▁ältere	-11.8277
▁führenden	-11.8277
sim	-11.8277
▁endangered	-11.8277
▁fitness	-11.8279
▁Cover	-11.8281
▁nest	-11.8284
▁Jun	-11.8284
OR	-11.8286
▁Senioren	-11.8286
▁Ausführung	-11.8288
06	-11.8289
▁Orleans	-11.829
▁Klinik	-11.8291
▁enjoyed	-11.8291
▁1/3	-11.8291
versorgung	-11.8292
▁normalen	-11.8293
▁(0,	-11.8294
▁fats	-11.8294
▁Reifen	-11.8295
1-	-11.8296
ū	-11.8298
▁scoring	-11.8298
▁Style	-11.8298
▁getan	-11.8301
▁offene	-11.8303
▁execution	-11.8305
Kreis	-11.8307
▁thyroid	-11.8307
ws	-11.831
-6	-11.831
counter	-11.8311
▁Autorin	-11.8311
▁Betreiber	-11.8311
▁1);	-11.8311
▁Oster	-11.8313
▁Wright	-11.8314
▁chinesischen	-11.8316
▁Harris	-11.8316
▁Botschaft	-11.8318
46	-11.8321
▁rear	-11.8323
▁filling	-11.8326
engine	-11.8326
▁Biology	-11.8328
▁gefördert	-11.8329
Delta	-11.8329
▁humanity	-11.8331
▁Pläne	-11.8332
▁einst	-11.8334
▁insights	-11.8335
satz	-11.8338
▁quadrilateral	-11.8338
▁Technische	-11.8339
inner	-11.834
▁Outdoor	-11.834
▁shallow	-11.8341
▁Wohnzimmer	-11.8341
▁electron	-11.8341
▁bestimmen	-11.8342
▁VALUES	-11.8343
▁Eier	-11.8344
▁ruled	-11.8345
▁1897	-11.8345
Auto	-11.8345
Meta	-11.8345
▁Samantha	-11.8351
▁gefertigt	-11.8351
HL	-11.8353
▁Drug	-11.8353
▁filters	-11.8353
▁gegangen	-11.8353
▁genauer	-11.8353
▁beneath	-11.8356
▁ceremony	-11.8359
unterricht	-11.8359
▁Weiterbildung	-11.8361
▁Russell	-11.8362
▁91	-11.8362
▁requiring	-11.8365
▁funktionieren	-11.8365
rest	-11.8366
▁Enter	-11.8367
▁neutral	-11.8367
▁hide	-11.8371
fit	-11.8371
ert	-11.8373
▁illnesses	-11.8373
▁medalists	-11.8375
good	-11.8375
best	-11.8381
▁Engel	-11.8381
timeout	-11.8383
▁teens	-11.8385
pl	-11.8387
▁founding	-11.8388
▁ansehen	-11.8389
▁Caribbean	-11.8391
▁{'	-11.8393
users	-11.8397
▁inch	-11.8399
▁till	-11.8402
MS	-11.8404
▁meint	-11.8404
▁fan	-11.8405
layers	-11.8406
▁geschafft	-11.8406
▁Europäische	-11.8408
▁Holocaust	-11.8408
▁Upper	-11.8408
▁uniform	-11.8409
▁Nordwesten	-11.8409
trainer	-11.841
zi	-11.8411
▁Krise	-11.8412
▁gelegen	-11.8412
▁fordert	-11.8412
▁roten	-11.8412
▁(3,	-11.8413
▁Hell	-11.8414
spieler	-11.8415
▁privat	-11.8416
schlag	-11.8416
▁speakers	-11.8418
▁padding	-11.8418
▁Workshop	-11.8419
▁planen	-11.8419
▁controlling	-11.8419
。	-11.842
▁Partnersuche	-11.842
rin	-11.8422
▁480	-11.8422
▁Tablet	-11.8423
▁enormous	-11.8423
▁2012:	-11.8424
▁dimension	-11.8424
▁PR	-11.8424
Load	-11.8425
▁circulation	-11.8425
▁reputation	-11.8426
▁immigrants	-11.8427
▁02	-11.8428
Edit	-11.8428
Our	-11.843
▁gelegenen	-11.843
▁traits	-11.843
dis	-11.8431
cli	-11.8431
▁Portal	-11.8431
▁Wirken	-11.8432
ext	-11.8432
▁1894	-11.8432
▁Kammer	-11.8434
▁guard	-11.8435
▁quantities	-11.8436
▁Israeli	-11.8437
▁collective	-11.8437
▁Recall	-11.8438
▁Pin	-11.8438
▁concentrations	-11.8438
▁Höhen	-11.8438
▁Buchstaben	-11.8439
▁blieben	-11.844
▁1)$	-11.8441
▁Tabelle	-11.8442
▁Additional	-11.8442
▁inclusion	-11.8442
▁restaurant	-11.8443
▁offizielle	-11.8443
▁Mid	-11.8443
▁tiles	-11.8444
▁Kassel	-11.8445
▁Orchestra	-11.8446
{12	-11.8446
▁Theodor	-11.845
▁photography	-11.845
▁4$,	-11.8454
▁painful	-11.8455
▁Haltung	-11.8456
▁210	-11.8457
▁constraint	-11.8457
▁Sp	-11.8458
▁comfort	-11.8459
▁algorithms	-11.8459
▁amongst	-11.8461
svg	-11.8462
▁equipped	-11.8463
▁auftreten	-11.8463
▁halb	-11.8463
▁guess	-11.8465
▁gather	-11.8465
-18	-11.8466
▁NY	-11.8466
reihe	-11.8467
▁256	-11.8468
▁Disney	-11.8468
▁Campus	-11.8469
▁simplest	-11.847
▁mini	-11.8471
▁accounting	-11.8472
▁Liverpool	-11.8472
▁Neuen	-11.8473
▁bears	-11.8474
▁Together	-11.8475
PR	-11.8476
▁addiction	-11.8477
▁Ch	-11.8477
▁Krebs	-11.848
wahl	-11.848
▁römisch	-11.8481
flag	-11.8482
▁attitude	-11.8483
▁optical	-11.8484
▁medicines	-11.8485
typeof	-11.8487
38	-11.8489
ada	-11.849
▁Mord	-11.8491
▁centered	-11.8493
▁licensed	-11.8493
pur	-11.8493
Operation	-11.8493
▁hill	-11.8496
▁Rekord	-11.8497
▁insect	-11.8497
▁Lassen	-11.85
▁finance	-11.85
▁niemals	-11.8501
▁calendar	-11.8504
▁hoffen	-11.8506
shop	-11.8506
▁Griff	-11.8507
▁vol	-11.8509
▁partially	-11.851
▁135	-11.8511
Metadata	-11.8511
Queue	-11.8512
▁ecological	-11.8514
▁nochmals	-11.8514
ated	-11.8515
▁Va	-11.8515
▁geblieben	-11.8515
▁Race	-11.8515
▁Demokratie	-11.8517
▁älteste	-11.8518
▁Entwurf	-11.8518
▁Hals	-11.8518
▁Manche	-11.8518
Storage	-11.8518
small	-11.852
▁ausgeführt	-11.852
Ab	-11.8522
▁Erzbischof	-11.8522
▁ref	-11.8523
▁hell	-11.8523
▁historian	-11.8525
▁bezieht	-11.8526
▁Akku	-11.8527
▁spät	-11.8529
▁Reinigung	-11.8529
▁tied	-11.8529
▁Technologien	-11.8531
▁singing	-11.8532
▁economics	-11.8532
▁Prag	-11.8535
▁Bibliothek	-11.8538
▁begleiten	-11.8541
▁bildete	-11.8541
▁nein	-11.8541
▁validate	-11.8542
▁USD	-11.8543
▁loaded	-11.8543
▁pens	-11.8544
▁Overall	-11.8545
▁Dave	-11.8545
▁chamber	-11.8546
package	-11.8547
▁ließen	-11.8549
▁Kelly	-11.8551
▁stretch	-11.8551
formen	-11.8553
▁handler	-11.8553
▁Anhänger	-11.8554
▁beziehen	-11.8555
▁2009:	-11.8557
▁arrive	-11.8557
▁Südosten	-11.8559
partner	-11.8559
▁earnings	-11.8561
▁Wang	-11.8561
▁Kapitel	-11.8562
▁1892	-11.8563
▁Grenz	-11.8563
▁Drama	-11.8564
▁vermitteln	-11.8568
▁Flügel	-11.857
▁discussions	-11.8571
extend	-11.8572
▁Grafik	-11.8573
▁collecting	-11.8573
▁schließt	-11.8574
▁Labour	-11.8574
▁armed	-11.8578
▁interventions	-11.8579
▁cited	-11.8579
▁gelungen	-11.858
▁40%	-11.858
▁Charts	-11.8581
▁Strukturen	-11.8582
▁performances	-11.8582
▁Evolution	-11.8583
ø	-11.8584
gcd	-11.8584
payload	-11.8584
runde	-11.8585
▁cake	-11.8586
▁seriously	-11.8587
▁Roy	-11.8588
verkehr	-11.8588
™	-11.8589
▁Ham	-11.859
▁literally	-11.859
Policy	-11.859
▁anniversary	-11.859
▁intersects	-11.8591
▁tries	-11.8592
▁doi	-11.8593
Bit	-11.8594
▁genügend	-11.8596
▁Veränderung	-11.8597
}.$	-11.8597
▁reserve	-11.8597
▁mothers	-11.8598
▁Weiterhin	-11.8601
▁Fame	-11.8601
▁mitten	-11.8601
DD	-11.8602
Collection	-11.8603
▁Literature	-11.8604
FM	-11.8605
▁Horst	-11.8606
▁debris	-11.8606
▁bestellt	-11.8607
▁reward	-11.8609
▁Large	-11.8609
diff	-11.8611
▁Fakultät	-11.8612
▁deswegen	-11.8613
▁gewährleisten	-11.8616
▁metadata	-11.8618
deutsch	-11.862
seit	-11.8622
▁Jungs	-11.8622
ON	-11.8622
▁Händen	-11.8625
▁intensiv	-11.8626
▁Bruce	-11.8626
dd	-11.8626
edit	-11.8627
[...]
